{
  "version": "1.0",
  "truncation": null,
  "padding": null,
  "added_tokens": [
    {
      "id": 0,
      "content": "[UNK]",
      "single_word": false,
      "lstrip": false,
      "rstrip": false,
      "normalized": false,
      "special": true
    },
    {
      "id": 1,
      "content": "[PAD]",
      "single_word": false,
      "lstrip": false,
      "rstrip": false,
      "normalized": false,
      "special": true
    },
    {
      "id": 2,
      "content": "[BOS]",
      "single_word": false,
      "lstrip": false,
      "rstrip": false,
      "normalized": false,
      "special": true
    },
    {
      "id": 3,
      "content": "[EOS]",
      "single_word": false,
      "lstrip": false,
      "rstrip": false,
      "normalized": false,
      "special": true
    }
  ],
  "normalizer": null,
  "pre_tokenizer": {
    "type": "ByteLevel",
    "add_prefix_space": false,
    "trim_offsets": true,
    "use_regex": true
  },
  "post_processor": {
    "type": "ByteLevel",
    "add_prefix_space": true,
    "trim_offsets": false,
    "use_regex": true
  },
  "decoder": {
    "type": "ByteLevel",
    "add_prefix_space": true,
    "trim_offsets": true,
    "use_regex": true
  },
  "model": {
    "type": "BPE",
    "dropout": null,
    "unk_token": "[UNK]",
    "continuing_subword_prefix": null,
    "end_of_word_suffix": null,
    "fuse_unk": false,
    "byte_fallback": false,
    "ignore_merges": false,
    "vocab": {
      "[UNK]": 0,
      "[PAD]": 1,
      "[BOS]": 2,
      "[EOS]": 3,
      "!": 4,
      "\"": 5,
      "#": 6,
      "$": 7,
      "%": 8,
      "&": 9,
      "'": 10,
      "(": 11,
      ")": 12,
      "*": 13,
      "+": 14,
      ",": 15,
      "-": 16,
      ".": 17,
      "/": 18,
      "0": 19,
      "1": 20,
      "2": 21,
      "3": 22,
      "4": 23,
      "5": 24,
      "6": 25,
      "7": 26,
      "8": 27,
      "9": 28,
      ":": 29,
      ";": 30,
      "<": 31,
      "=": 32,
      ">": 33,
      "?": 34,
      "@": 35,
      "A": 36,
      "B": 37,
      "C": 38,
      "D": 39,
      "E": 40,
      "F": 41,
      "G": 42,
      "H": 43,
      "I": 44,
      "J": 45,
      "K": 46,
      "L": 47,
      "M": 48,
      "N": 49,
      "O": 50,
      "P": 51,
      "Q": 52,
      "R": 53,
      "S": 54,
      "T": 55,
      "U": 56,
      "V": 57,
      "W": 58,
      "X": 59,
      "Y": 60,
      "Z": 61,
      "[": 62,
      "\\": 63,
      "]": 64,
      "^": 65,
      "_": 66,
      "a": 67,
      "b": 68,
      "c": 69,
      "d": 70,
      "e": 71,
      "f": 72,
      "g": 73,
      "h": 74,
      "i": 75,
      "j": 76,
      "k": 77,
      "l": 78,
      "m": 79,
      "n": 80,
      "o": 81,
      "p": 82,
      "q": 83,
      "r": 84,
      "s": 85,
      "t": 86,
      "u": 87,
      "v": 88,
      "w": 89,
      "x": 90,
      "y": 91,
      "z": 92,
      "{": 93,
      "|": 94,
      "}": 95,
      "~": 96,
      "¡": 97,
      "¢": 98,
      "£": 99,
      "¤": 100,
      "¥": 101,
      "¦": 102,
      "§": 103,
      "¨": 104,
      "©": 105,
      "ª": 106,
      "«": 107,
      "¬": 108,
      "®": 109,
      "¯": 110,
      "°": 111,
      "±": 112,
      "²": 113,
      "³": 114,
      "´": 115,
      "¶": 116,
      "¸": 117,
      "¹": 118,
      "º": 119,
      "»": 120,
      "¼": 121,
      "¿": 122,
      "Â": 123,
      "Ã": 124,
      "Å": 125,
      "Ð": 126,
      "â": 127,
      "Ċ": 128,
      "Ġ": 129,
      "Ģ": 130,
      "Ĥ": 131,
      "Ħ": 132,
      "ħ": 133,
      "Ĩ": 134,
      "ĩ": 135,
      "Ī": 136,
      "ī": 137,
      "Ĭ": 138,
      "ĭ": 139,
      "Į": 140,
      "İ": 141,
      "ı": 142,
      "Ĵ": 143,
      "ĵ": 144,
      "Ķ": 145,
      "ĸ": 146,
      "ĺ": 147,
      "Ļ": 148,
      "Ľ": 149,
      "ľ": 150,
      "Ŀ": 151,
      "ŀ": 152,
      "Ł": 153,
      "ł": 154,
      "Ġt": 155,
      "he": 156,
      "Ġa": 157,
      "in": 158,
      "er": 159,
      "en": 160,
      "Ġthe": 161,
      "on": 162,
      "Ġs": 163,
      "re": 164,
      "ĠĠ": 165,
      "Ġo": 166,
      "Ġb": 167,
      "Ġw": 168,
      "nd": 169,
      "es": 170,
      "Ġc": 171,
      "Ġf": 172,
      "at": 173,
      "is": 174,
      "or": 175,
      "Ġp": 176,
      "it": 177,
      "ar": 178,
      "ed": 179,
      "Ġd": 180,
      "an": 181,
      "Ġm": 182,
      "ll": 183,
      "Ġof": 184,
      "Ġand": 185,
      "ou": 186,
      "Ġl": 187,
      "Ġin": 188,
      "as": 189,
      "Ġh": 190,
      "ic": 191,
      "ing": 192,
      "ĠS": 193,
      "al": 194,
      "Ġn": 195,
      "ĠT": 196,
      "ro": 197,
      "Ġto": 198,
      "Ġth": 199,
      "ĠO": 200,
      "ĠI": 201,
      "Ġe": 202,
      "ent": 203,
      "Ġg": 204,
      "ĠC": 205,
      "ion": 206,
      "ĠA": 207,
      "le": 208,
      "Ġbe": 209,
      "ĠM": 210,
      "Ġ1": 211,
      "st": 212,
      "ur": 213,
      "et": 214,
      "om": 215,
      "Ġre": 216,
      "Ġu": 217,
      "ĠB": 218,
      "ch": 219,
      "id": 220,
      "il": 221,
      "ot": 222,
      "ve": 223,
      "ĠP": 224,
      "ct": 225,
      "ig": 226,
      "ut": 227,
      "ad": 228,
      "ay": 229,
      "ce": 230,
      "ie": 231,
      "se": 232,
      "ĠD": 233,
      "ir": 234,
      "ĠH": 235,
      "ĠW": 236,
      "im": 237,
      "Ġfor": 238,
      "Ġon": 239,
      "ol": 240,
      "ver": 241,
      "ly": 242,
      "am": 243,
      "ter": 244,
      "Ġis": 245,
      "ĠThe": 246,
      "ow": 247,
      "ĠN": 248,
      "ĠG": 249,
      "Ġst": 250,
      "ĠF": 251,
      "ra": 252,
      "Ġhe": 253,
      "ĠL": 254,
      "us": 255,
      "ill": 256,
      "Ġwh": 257,
      "Ġan": 258,
      "Ġthat": 259,
      "Ġde": 260,
      "un": 261,
      "ge": 262,
      "ĠR": 263,
      "Ġat": 264,
      "Ġv": 265,
      "ith": 266,
      "ĠOf": 267,
      "Ġr": 268,
      "ĠE": 269,
      "if": 270,
      "ĠĠĠĠ": 271,
      "Ġas": 272,
      "ul": 273,
      "Ġwith": 274,
      "est": 275,
      "um": 276,
      "Ġy": 277,
      "ich": 278,
      "her": 279,
      "res": 280,
      "te": 281,
      "Ġwas": 282,
      "ĠJ": 283,
      "Ġse": 284,
      "th": 285,
      "pe": 286,
      "ers": 287,
      "Ġ2": 288,
      "Ġcon": 289,
      "all": 290,
      "qu": 291,
      "and": 292,
      "ation": 293,
      "ri": 294,
      "Ġby": 295,
      "rom": 296,
      "ck": 297,
      "ld": 298,
      "os": 299,
      "ĠOF": 300,
      "Ġor": 301,
      "..": 302,
      "ab": 303,
      "od": 304,
      "em": 305,
      "Ġit": 306,
      "el": 307,
      "ate": 308,
      "ant": 309,
      "Ġare": 310,
      "Ġfrom": 311,
      "Ġsu": 312,
      "Ġun": 313,
      "ber": 314,
      "ess": 315,
      "Ġha": 316,
      "ht": 317,
      "ain": 318,
      "Ġex": 319,
      "end": 320,
      "Ġ(": 321,
      "art": 322,
      "ist": 323,
      "Ġne": 324,
      "ore": 325,
      "ak": 326,
      "Ġsh": 327,
      "Ġ3": 328,
      "Ġi": 329,
      "Ġpro": 330,
      "Ġcom": 331,
      "our": 332,
      "ĠIn": 333,
      "ort": 334,
      "ard": 335,
      "ies": 336,
      "Ġnot": 337,
      "âĢ": 338,
      "Ġwe": 339,
      "Ġal": 340,
      "00": 341,
      "pp": 342,
      "ĠV": 343,
      "nt": 344,
      "la": 345,
      "ine": 346,
      "Ġwill": 347,
      "Ġthis": 348,
      "Ġk": 349,
      "ere": 350,
      "pt": 351,
      "Ġwhich": 352,
      "ity": 353,
      "iv": 354,
      "ĠĠĠ": 355,
      "Ġhave": 356,
      "ure": 357,
      "Ġle": 358,
      "ĠSt": 359,
      "ight": 360,
      "ud": 361,
      "ia": 362,
      "Ġhis": 363,
      "ast": 364,
      "Ġch": 365,
      "ment": 366,
      "Ã¤": 367,
      "Ġall": 368,
      "Ġhas": 369,
      "ft": 370,
      "op": 371,
      "che": 372,
      "Ã¼": 373,
      "Ġj": 374,
      "ous": 375,
      "ff": 376,
      "Ġ8": 377,
      "Ġ4": 378,
      "ive": 379,
      "Ġfe": 380,
      "au": 381,
      "Ġ10": 382,
      "ong": 383,
      "ap": 384,
      "ost": 385,
      "Ġqu": 386,
      "Ã©": 387,
      "ru": 388,
      "ĠK": 389,
      "ne": 390,
      "ag": 391,
      "Ġ\"": 392,
      "Ġab": 393,
      "ould": 394,
      "ci": 395,
      "ĠMr": 396,
      "Ġman": 397,
      "ome": 398,
      "ĠU": 399,
      "ther": 400,
      "Ġbeen": 401,
      "cc": 402,
      "ood": 403,
      "ry": 404,
      "ice": 405,
      "ss": 406,
      "ĠÂ": 407,
      "ount": 408,
      "oug": 409,
      "Ġ.": 410,
      "Ġ18": 411,
      "Ġme": 412,
      "ung": 413,
      "Ġ5": 414,
      "Ġpl": 415,
      "oll": 416,
      "ĠTh": 417,
      "hen": 418,
      "Ġund": 419,
      "ĠâĢ": 420,
      "Ġ,": 421,
      "Ġbut": 422,
      "Ġar": 423,
      "ire": 424,
      "Ġso": 425,
      "Ġ-": 426,
      "ell": 427,
      "ction": 428,
      "ran": 429,
      ".,": 430,
      "ep": 431,
      "Ġone": 432,
      "ars": 433,
      "av": 434,
      "ub": 435,
      "ound": 436,
      "Ġen": 437,
      "Ġwho": 438,
      "ust": 439,
      "Ġwere": 440,
      "ĠII": 441,
      "lo": 442,
      "out": 443,
      "ite": 444,
      "ach": 445,
      "Ġad": 446,
      "per": 447,
      "Ġ9": 448,
      "ass": 449,
      "ib": 450,
      "very": 451,
      "Ġper": 452,
      "ue": 453,
      "'s": 454,
      "Ġro": 455,
      "ond": 456,
      "Ġsa": 457,
      "ĠCh": 458,
      "ten": 459,
      "Ġtheir": 460,
      "Ġno": 461,
      "ary": 462,
      "Ġthey": 463,
      "ĠY": 464,
      "ated": 465,
      "Ġ19": 466,
      "Ġup": 467,
      "ac": 468,
      "ER": 469,
      "Ġhad": 470,
      "Ġsp": 471,
      "ew": 472,
      "Ġdo": 473,
      "Ġ$": 474,
      "ind": 475,
      "iss": 476,
      "ame": 477,
      "ord": 478,
      "fer": 479,
      "ence": 480,
      "ork": 481,
      "ens": 482,
      "able": 483,
      "ts": 484,
      "Ġ6": 485,
      "red": 486,
      "Ġdes": 487,
      "Ġtw": 488,
      "ĠTO": 489,
      "wn": 490,
      "Ġder": 491,
      "fe": 492,
      "ree": 493,
      "ans": 494,
      "Ã¶": 495,
      "ii": 496,
      "og": 497,
      "ric": 498,
      "iz": 499,
      "one": 500,
      "mer": 501,
      "ÃŁ": 502,
      "Ġ|": 503,
      "Ġyou": 504,
      "ough": 505,
      "ark": 506,
      "Ġspe": 507,
      "lic": 508,
      "Ġag": 509,
      "Ġ;": 510,
      "Ġla": 511,
      "ok": 512,
      "ip": 513,
      "Ġim": 514,
      "Ġye": 515,
      "ng": 516,
      "ade": 517,
      "Ġother": 518,
      "Ġ7": 519,
      "be": 520,
      "Ġpart": 521,
      "Ġres": 522,
      "ress": 523,
      "Ġdis": 524,
      "Ġthere": 525,
      "ally": 526,
      "ake": 527,
      "ance": 528,
      "oc": 529,
      "day": 530,
      "ish": 531,
      "ven": 532,
      "ide": 533,
      "Ġfa": 534,
      "ĠÂ©": 535,
      "ON": 536,
      "Ġher": 537,
      "to": 538,
      "les": 539,
      "old": 540,
      "orn": 541,
      "li": 542,
      "Ġ~": 543,
      "Ġam": 544,
      "Ġ'": 545,
      "ors": 546,
      "age": 547,
      "ons": 548,
      "reat": 549,
      "ert": 550,
      "own": 551,
      "Ġz": 552,
      "Ġcomp": 553,
      "ose": 554,
      "Ġau": 555,
      "Ġday": 556,
      "ph": 557,
      "Ġcan": 558,
      "Ġtim": 559,
      "IN": 560,
      "itt": 561,
      "Ġra": 562,
      "Ġout": 563,
      "ke": 564,
      "Ġpre": 565,
      "ĠHe": 566,
      "ile": 567,
      "Ġany": 568,
      "Ġthem": 569,
      "ĠIs": 570,
      "Ġ&": 571,
      "ase": 572,
      "ates": 573,
      "AN": 574,
      "ect": 575,
      "ĠSe": 576,
      "ition": 577,
      "Ġgr": 578,
      "ĠâĢĶ": 579,
      "Ġcont": 580,
      "Ġpr": 581,
      "ents": 582,
      "ater": 583,
      "ang": 584,
      "fter": 585,
      "urn": 586,
      "ild": 587,
      "ĠNo": 588,
      "Ġthan": 589,
      "Ġsaid": 590,
      "ES": 591,
      "Ġlar": 592,
      "Ġer": 593,
      "ull": 594,
      "ale": 595,
      "ĠIN": 596,
      "ont": 597,
      "Ġco": 598,
      "ĠRe": 599,
      "Ġpe": 600,
      "Ġsome": 601,
      "Ġrep": 602,
      "Ġmore": 603,
      "EN": 604,
      "ty": 605,
      "Ġhim": 606,
      "ben": 607,
      "ug": 608,
      "ĠNew": 609,
      "int": 610,
      "ces": 611,
      "Ġcl": 612,
      "we": 613,
      "Ġtwo": 614,
      "Ġcount": 615,
      "Ġwhen": 616,
      "Ġcomm": 617,
      "Ġq": 618,
      "und": 619,
      "Ġpres": 620,
      "ail": 621,
      "Ġwould": 622,
      "so": 623,
      "man": 624,
      "ton": 625,
      "AR": 626,
      "ĠWe": 627,
      "OR": 628,
      "Ġbo": 629,
      "ian": 630,
      "cl": 631,
      "Ġapp": 632,
      "Ġdie": 633,
      ".-": 634,
      "orm": 635,
      "Ġein": 636,
      "ick": 637,
      "erv": 638,
      "du": 639,
      "Ġtime": 640,
      "ĠUn": 641,
      "Ġgen": 642,
      "Ġpo": 643,
      "are": 644,
      "ult": 645,
      "Ġbr": 646,
      "Ġmade": 647,
      "Ġ0": 648,
      "ial": 649,
      "Ġits": 650,
      "Ġunb": 651,
      "Ġus": 652,
      "ied": 653,
      "ions": 654,
      "ced": 655,
      "ack": 656,
      "hn": 657,
      "Ġber": 658,
      "ings": 659,
      "ign": 660,
      "Ġwhe": 661,
      "Ġmay": 662,
      "Ġent": 663,
      "ĠAn": 664,
      "bs": 665,
      "ren": 666,
      "Ġlo": 667,
      "ĠZ": 668,
      "ier": 669,
      "ins": 670,
      "ical": 671,
      "land": 672,
      "Ġshe": 673,
      "Ġinter": 674,
      "Ġbie": 675,
      "Ġabout": 676,
      "Ġvery": 677,
      "ĠMrs": 678,
      "Ġtr": 679,
      "row": 680,
      "Ġlast": 681,
      "Ġ81": 682,
      "oss": 683,
      "ae": 684,
      "Ġafter": 685,
      "Ġli": 686,
      "Ġour": 687,
      "Ġrec": 688,
      ").": 689,
      "Ġap": 690,
      "Ġgood": 691,
      "Ġkn": 692,
      "Ġrem": 693,
      "reet": 694,
      "Ġet": 695,
      "AL": 696,
      "Ġover": 697,
      "ations": 698,
      "Ġbet": 699,
      "Ġfir": 700,
      "Ġoff": 701,
      "Ġgreat": 702,
      "ek": 703,
      "uch": 704,
      "ari": 705,
      "Ġpla": 706,
      "Ġ:": 707,
      "der": 708,
      "sel": 709,
      "ĠCo": 710,
      "pr": 711,
      "ory": 712,
      "ays": 713,
      "Ġspec": 714,
      "Ġlong": 715,
      "ĠLe": 716,
      "me": 717,
      "Ġdist": 718,
      "Ġ^": 719,
      "act": 720,
      "ĠCom": 721,
      "Ġatt": 722,
      "Ġwork": 723,
      "eral": 724,
      "ah": 725,
      "ited": 726,
      "ĠÃ": 727,
      "ix": 728,
      "Ġgo": 729,
      "oth": 730,
      "AT": 731,
      "Ġing": 732,
      "orth": 733,
      "Ġge": 734,
      "rit": 735,
      "Ġonly": 736,
      "io": 737,
      "HE": 738,
      "ĠDe": 739,
      "ĠIt": 740,
      "Ġinto": 741,
      "Ġfl": 742,
      "Ġ20": 743,
      "Ġcons": 744,
      "fore": 745,
      "ouse": 746,
      "Ġter": 747,
      "....": 748,
      "iver": 749,
      "Ġsc": 750,
      "Ġac": 751,
      "enn": 752,
      "ife": 753,
      "Ġacc": 754,
      "Ġyears": 755,
      "igh": 756,
      "Ġmost": 757,
      "urch": 758,
      "hed": 759,
      "ock": 760,
      "Ġnew": 761,
      "ise": 762,
      "IS": 763,
      "Ġthese": 764,
      "ved": 765,
      "Ġunder": 766,
      "gen": 767,
      "ĠBe": 768,
      "Ġif": 769,
      "ls": 770,
      "Ġ/": 771,
      "Ġmy": 772,
      "Ġpar": 773,
      "ash": 774,
      "ys": 775,
      "Ġtra": 776,
      "ath": 777,
      "ident": 778,
      "âĢĻ": 779,
      "att": 780,
      "Ġlarge": 781,
      "Ġsec": 782,
      "ĠThis": 783,
      "als": 784,
      "Ġbl": 785,
      "ĠAr": 786,
      "ool": 787,
      "ollow": 788,
      "cted": 789,
      "50": 790,
      "Ġmit": 791,
      "bt": 792,
      "Ġsm": 793,
      "Ġchar": 794,
      "ett": 795,
      "Ġbeing": 796,
      "ants": 797,
      "Ġshould": 798,
      "outh": 799,
      "Ġstreet": 800,
      "Ġte": 801,
      "tern": 802,
      "Ġhere": 803,
      "ĠAl": 804,
      "Ġexp": 805,
      "Ġnow": 806,
      "II": 807,
      "Ġ=": 808,
      "ĠJo": 809,
      "Ġreg": 810,
      "Ġupon": 811,
      "cr": 812,
      "Ġsuch": 813,
      "Ġevery": 814,
      "its": 815,
      "Ġbu": 816,
      "ĠĠĠĠĠ": 817,
      "ublic": 818,
      "Ġben": 819,
      "ular": 820,
      "Ġmen": 821,
      "any": 822,
      "Ġcity": 823,
      "rib": 824,
      "son": 825,
      "tt": 826,
      "uf": 827,
      "ner": 828,
      "Ġfollow": 829,
      "Ġcar": 830,
      "ĠCO": 831,
      "ches": 832,
      "Ġimp": 833,
      "Ġform": 834,
      "Ġwhere": 835,
      "Ġver": 836,
      "Ġind": 837,
      "fl": 838,
      "ĠGe": 839,
      "Ġfirst": 840,
      "Ã¼r": 841,
      "ĠQ": 842,
      "Ġcor": 843,
      "Ġmany": 844,
      "Ġsame": 845,
      "ĠIl": 846,
      "Ġthr": 847,
      "Ġes": 848,
      "amp": 849,
      "ands": 850,
      "Ġed": 851,
      "Ġalso": 852,
      "ĠWh": 853,
      "men": 854,
      "IC": 855,
      "Ġaud": 856,
      "Ġsch": 857,
      "Ġele": 858,
      "ower": 859,
      "Ġsur": 860,
      "ĠPro": 861,
      "IL": 862,
      "Ġeven": 863,
      "ĠMiss": 864,
      "ove": 865,
      "mp": 866,
      "ob": 867,
      "air": 868,
      "ward": 869,
      "Ġden": 870,
      "Ġsub": 871,
      "hr": 872,
      "ily": 873,
      "Ġweek": 874,
      "ann": 875,
      "uring": 876,
      "Ġdif": 877,
      "pen": 878,
      "ED": 879,
      "Ġcol": 880,
      "IT": 881,
      "Ġagain": 882,
      "ace": 883,
      "Ġ!": 884,
      "000": 885,
      "Ġpresent": 886,
      "icht": 887,
      "Ġgiv": 888,
      "Ġtho": 889,
      "arm": 890,
      "Ġest": 891,
      "''": 892,
      "Ġmin": 893,
      "ern": 894,
      "Ġnum": 895,
      "ank": 896,
      "ĠSo": 897,
      "Ġgra": 898,
      "Ġyear": 899,
      "ious": 900,
      "atter": 901,
      "ather": 902,
      "co": 903,
      "Ġthrough": 904,
      "Ġeach": 905,
      "vel": 906,
      "ĠSch": 907,
      "vent": 908,
      "Ġthree": 909,
      "ĠIL": 910,
      "Ġret": 911,
      "Ġbefore": 912,
      "),": 913,
      "lie": 914,
      "ving": 915,
      "ful": 916,
      "ien": 917,
      "Ġbec": 918,
      "Ġass": 919,
      "Ġmon": 920,
      "br": 921,
      "Ġrece": 922,
      "Ġwell": 923,
      "atur": 924,
      "Ġvari": 925,
      "ual": 926,
      "Ġmuch": 927,
      "Ġnear": 928,
      "Ġbus": 929,
      "Ġfound": 930,
      "ĠOn": 931,
      "Ġthen": 932,
      "Ġma": 933,
      "The": 934,
      "inn": 935,
      "bl": 936,
      "Ġdem": 937,
      "ĠJohn": 938,
      "ĠNJ": 939,
      "ink": 940,
      "Ġgu": 941,
      "Ġauf": 942,
      "ittle": 943,
      "Ġ%": 944,
      "ments": 945,
      "rs": 946,
      "urs": 947,
      "Ġtak": 948,
      "Ġcour": 949,
      "Ġca": 950,
      "Ġocc": 951,
      "Ġles": 952,
      "Ġdep": 953,
      ",,": 954,
      "Ġil": 955,
      "Ġext": 956,
      "Ġold": 957,
      "Ġmar": 958,
      "rat": 959,
      "Ġcall": 960,
      "cy": 961,
      "ĠWill": 962,
      "ĠMar": 963,
      "Ġact": 964,
      "aw": 965,
      "ves": 966,
      "Ġfr": 967,
      "ĠYork": 968,
      "Ġbro": 969,
      "oun": 970,
      "ought": 971,
      "Ġfin": 972,
      "gg": 973,
      "ĠDer": 974,
      "ĠTHE": 975,
      "cre": 976,
      "ott": 977,
      "rop": 978,
      "ange": 979,
      "Ġyour": 980,
      "Ġthose": 981,
      "ific": 982,
      "ĠX": 983,
      "ave": 984,
      "ĠAt": 985,
      "ures": 986,
      "of": 987,
      "ople": 988,
      "chen": 989,
      "lock": 990,
      "ished": 991,
      "une": 992,
      "Ġsl": 993,
      "Ġ@": 994,
      "ĠGen": 995,
      "UR": 996,
      "ute": 997,
      "--": 998,
      "lt": 999,
      "other": 1000,
      "Ġcounty": 1001,
      "ĠPh": 1002,
      "cial": 1003,
      "ĠSp": 1004,
      "xt": 1005,
      "ween": 1006,
      "Ġfeet": 1007,
      "Ġmem": 1008,
      "ĠCl": 1009,
      "form": 1010,
      "Ġplace": 1011,
      "vern": 1012,
      "ters": 1013,
      "Ġspecies": 1014,
      "EL": 1015,
      "Ġmake": 1016,
      "af": 1017,
      "ble": 1018,
      "Ġfew": 1019,
      "Ġappe": 1020,
      "osed": 1021,
      "ady": 1022,
      "arn": 1023,
      "ider": 1024,
      "up": 1025,
      "ĠSc": 1026,
      "Ġton": 1027,
      "ird": 1028,
      "ĠFor": 1029,
      "ĠAmer": 1030,
      "Ġeff": 1031,
      "ause": 1032,
      "Ġadd": 1033,
      "Ġche": 1034,
      "ĠTo": 1035,
      "ĠThey": 1036,
      "AS": 1037,
      "Ġke": 1038,
      "min": 1039,
      "Ġpass": 1040,
      "ĠĠĠĠĠĠĠĠ": 1041,
      "ature": 1042,
      "no": 1043,
      "Ġmeet": 1044,
      "Ġste": 1045,
      "alt": 1046,
      "ĠInd": 1047,
      "Ġlittle": 1048,
      "Ġhow": 1049,
      "Ġcent": 1050,
      "Ġsmall": 1051,
      "Ġbetween": 1052,
      "ĠRo": 1053,
      "Ġinst": 1054,
      "ĠThere": 1055,
      "itte": 1056,
      "ĠCon": 1057,
      "Ġbest": 1058,
      "iam": 1059,
      "ines": 1060,
      "way": 1061,
      "ution": 1062,
      "Ġvon": 1063,
      "Ġhouse": 1064,
      "Ġpeople": 1065,
      "ently": 1066,
      "ai": 1067,
      "ety": 1068,
      "ract": 1069,
      "led": 1070,
      "Ġsupp": 1071,
      "ze": 1072,
      "ING": 1073,
      "iness": 1074,
      "ived": 1075,
      "Ġcould": 1076,
      "Ġshow": 1077,
      "Ġsever": 1078,
      "ness": 1079,
      "eth": 1080,
      "ĠSh": 1081,
      "ef": 1082,
      "ĠST": 1083,
      "gan": 1084,
      "Ġbre": 1085,
      "Ġwater": 1086,
      "Ġ70": 1087,
      "ĠBo": 1088,
      "cn": 1089,
      "ured": 1090,
      "ues": 1091,
      "Ġwhat": 1092,
      "ĠFran": 1093,
      "ger": 1094,
      "Ġlie": 1095,
      "Ġpers": 1096,
      "ington": 1097,
      "pect": 1098,
      "ĠNe": 1099,
      "ets": 1100,
      "ative": 1101,
      "ĠAmeric": 1102,
      "Ġdec": 1103,
      "ĠCar": 1104,
      "Ġdu": 1105,
      "Ġ80": 1106,
      "ĠAN": 1107,
      "ĠState": 1108,
      "Ġnight": 1109,
      "ertain": 1110,
      "Ġfo": 1111,
      "ax": 1112,
      "sp": 1113,
      "ĠDie": 1114,
      "Ġque": 1115,
      "Ġmo": 1116,
      "ior": 1117,
      "Ġtre": 1118,
      "ĠAll": 1119,
      "Ã¨": 1120,
      "ris": 1121,
      "Ġvis": 1122,
      "Ġii": 1123,
      "Ġsy": 1124,
      "ĠIII": 1125,
      "ends": 1126,
      "ĠOr": 1127,
      "ible": 1128,
      "ross": 1129,
      "Ġdown": 1130,
      "Ġlike": 1131,
      "ns": 1132,
      "Ġhead": 1133,
      "ms": 1134,
      "Ġdays": 1135,
      "cess": 1136,
      "til": 1137,
      "uss": 1138,
      "Ġhome": 1139,
      "Ġexce": 1140,
      "ĠCol": 1141,
      "Ġfour": 1142,
      "ĠBr": 1143,
      "OO": 1144,
      "ason": 1145,
      "ict": 1146,
      "ject": 1147,
      "Ġwhile": 1148,
      "Ġstate": 1149,
      "Ġorder": 1150,
      "den": 1151,
      "alf": 1152,
      "rict": 1153,
      "urg": 1154,
      "ĠMe": 1155,
      "Ġduring": 1156,
      "ina": 1157,
      "'t": 1158,
      "ĠAs": 1159,
      "ĠStates": 1160,
      "Ġown": 1161,
      "ps": 1162,
      "igen": 1163,
      "Ġpol": 1164,
      "Ġear": 1165,
      "ried": 1166,
      "ities": 1167,
      "ield": 1168,
      "Ġfam": 1169,
      "ĠAd": 1170,
      "Ġser": 1171,
      "Ġway": 1172,
      "ased": 1173,
      "rt": 1174,
      "pl": 1175,
      "ating": 1176,
      "LE": 1177,
      "ases": 1178,
      "ĠIS": 1179,
      "Ġ30": 1180,
      "Ġinterest": 1181,
      "Ġpublic": 1182,
      "ots": 1183,
      "Ġnumber": 1184,
      "Ġmil": 1185,
      "aut": 1186,
      "Ġgiven": 1187,
      "Ġshall": 1188,
      "Ġend": 1189,
      "que": 1190,
      "ĠAnd": 1191,
      "Ġknow": 1192,
      "ĠSO": 1193,
      "ĠBro": 1194,
      "Ġ100": 1195,
      "bers": 1196,
      "ĠPl": 1197,
      "Ġmust": 1198,
      "Ġ*": 1199,
      "eter": 1200,
      "uc": 1201,
      "Ġreport": 1202,
      "ION": 1203,
      "Ġmark": 1204,
      "self": 1205,
      "olog": 1206,
      "ames": 1207,
      "Ġdid": 1208,
      "Ġwithout": 1209,
      "Ġint": 1210,
      "eb": 1211,
      "uth": 1212,
      "Ġmonth": 1213,
      "Ġpur": 1214,
      "alk": 1215,
      "ĠPres": 1216,
      "ille": 1217,
      "Ġph": 1218,
      "Ġ12": 1219,
      "ĠBut": 1220,
      "RE": 1221,
      "eds": 1222,
      "ince": 1223,
      "Ġserv": 1224,
      "ester": 1225,
      "Ġcountry": 1226,
      "ales": 1227,
      "ĠEx": 1228,
      "Ġhand": 1229,
      "mber": 1230,
      "arten": 1231,
      "Ġproper": 1232,
      "Ġel": 1233,
      "Ġ15": 1234,
      "ige": 1235,
      "ium": 1236,
      "Ġtake": 1237,
      "aug": 1238,
      "ody": 1239,
      "ĠMay": 1240,
      "lack": 1241,
      "oney": 1242,
      "Ġloc": 1243,
      "ĠIf": 1244,
      "Ġzu": 1245,
      "RO": 1246,
      "Ġprodu": 1247,
      "ĠBl": 1248,
      "Ġback": 1249,
      "Ġ187": 1250,
      "Ġfact": 1251,
      "ption": 1252,
      "Ġdire": 1253,
      "Ġment": 1254,
      "Ġfull": 1255,
      "Ġagainst": 1256,
      "Ġfri": 1257,
      "Ġuse": 1258,
      "Ġ25": 1259,
      "let": 1260,
      "Ġwhite": 1261,
      "ĠPr": 1262,
      "Ġaff": 1263,
      "Ġland": 1264,
      "ĠÃ¼": 1265,
      "Ġce": 1266,
      "Ġseveral": 1267,
      "ined": 1268,
      "ged": 1269,
      "Ġbusiness": 1270,
      "Ġins": 1271,
      "Ġinv": 1272,
      "nn": 1273,
      "Ġmer": 1274,
      "get": 1275,
      "ery": 1276,
      "ats": 1277,
      "Ġline": 1278,
      ".\"": 1279,
      "ivers": 1280,
      "Ġtaken": 1281,
      "by": 1282,
      "Ġlet": 1283,
      "ral": 1284,
      "ata": 1285,
      "Ġfur": 1286,
      "Ġtown": 1287,
      "Ġfollowing": 1288,
      "ĠGr": 1289,
      "Ġmorn": 1290,
      "Ġ23": 1291,
      "ains": 1292,
      "reen": 1293,
      "ched": 1294,
      "Ġuntil": 1295,
      "ET": 1296,
      "ĠÃł": 1297,
      "Ġprop": 1298,
      "ey": 1299,
      "gr": 1300,
      "Ġhigh": 1301,
      "Ġlaw": 1302,
      "Ġless": 1303,
      "fen": 1304,
      "Ġdiffer": 1305,
      "sh": 1306,
      "Ġ11": 1307,
      "mb": 1308,
      "Ġval": 1309,
      "Ġreturn": 1310,
      "Ġjust": 1311,
      "Ġev": 1312,
      "Ġoffic": 1313,
      "Ġhaving": 1314,
      "Ġknown": 1315,
      "Ġsee": 1316,
      "Ġget": 1317,
      "osition": 1318,
      "ared": 1319,
      "ungen": 1320,
      "lich": 1321,
      "ĠFl": 1322,
      "ĠUnited": 1323,
      "Ġtran": 1324,
      "Ġcase": 1325,
      "Ġrel": 1326,
      "ained": 1327,
      "Ġ90": 1328,
      "ired": 1329,
      "ctions": 1330,
      "Ġposs": 1331,
      "ides": 1332,
      "Ġopen": 1333,
      "ĠShe": 1334,
      "Ġpat": 1335,
      "Ġgro": 1336,
      "ĠTe": 1337,
      "Ġx": 1338,
      "Ġcond": 1339,
      "ably": 1340,
      "ST": 1341,
      "Ġheld": 1342,
      "ler": 1343,
      "Ġsix": 1344,
      "Ġsent": 1345,
      "Ġabove": 1346,
      "ĠGo": 1347,
      "ission": 1348,
      "Ġfar": 1349,
      "ĠSte": 1350,
      "ĠHer": 1351,
      "kt": 1352,
      "ges": 1353,
      "Ġgrow": 1354,
      "Ġaus": 1355,
      "ste": 1356,
      "Ġboth": 1357,
      "Ġqui": 1358,
      "Ġann": 1359,
      "IR": 1360,
      "Ġplant": 1361,
      "Ġcle": 1362,
      "Ġcoll": 1363,
      "ĠWash": 1364,
      "Ġpay": 1365,
      "Ġside": 1366,
      "less": 1367,
      "Ġart": 1368,
      "Ġyoung": 1369,
      "Ġpost": 1370,
      "ley": 1371,
      "ĠâĢ¢": 1372,
      "eng": 1373,
      "ives": 1374,
      "Ġpap": 1375,
      "ury": 1376,
      "Ġgive": 1377,
      "AY": 1378,
      "Ġtru": 1379,
      "ief": 1380,
      "Ġadv": 1381,
      "aid": 1382,
      "Ġsum": 1383,
      "Ġright": 1384,
      "ĠEd": 1385,
      "hes": 1386,
      "Ġsim": 1387,
      "ement": 1388,
      "Ġnext": 1389,
      "Ġfore": 1390,
      "par": 1391,
      "Ġstock": 1392,
      "Ġ14": 1393,
      "Ġ189": 1394,
      "Ġconsider": 1395,
      "oe": 1396,
      "Ġple": 1397,
      "Ġever": 1398,
      "Ġnever": 1399,
      "Ġseem": 1400,
      "Ġdesc": 1401,
      "ĠComm": 1402,
      "Ġport": 1403,
      "AM": 1404,
      "ided": 1405,
      "Ġconst": 1406,
      "ENT": 1407,
      "Ġ188": 1408,
      "ists": 1409,
      "Ġmorning": 1410,
      "ĠfÃ¼r": 1411,
      "Ġob": 1412,
      "Ġsay": 1413,
      "ĠSouth": 1414,
      "ĠRep": 1415,
      "ended": 1416,
      "ret": 1417,
      "ered": 1418,
      "Ġ13": 1419,
      "ison": 1420,
      "Ġmak": 1421,
      "Ġten": 1422,
      "aint": 1423,
      "Ġstr": 1424,
      "ize": 1425,
      "Ġmed": 1426,
      "Ġlook": 1427,
      "Ġsn": 1428,
      "Ġtri": 1429,
      "Ġbeg": 1430,
      "Ġwar": 1431,
      "ye": 1432,
      "Ġgl": 1433,
      "Ġir": 1434,
      "Ġist": 1435,
      "iff": 1436,
      "ills": 1437,
      "ĠÃ©": 1438,
      "atis": 1439,
      "ĠEng": 1440,
      "Ġho": 1441,
      "Ġana": 1442,
      "Ġleft": 1443,
      "Ġcontin": 1444,
      "Ġrequ": 1445,
      "esterday": 1446,
      "Ġprom": 1447,
      "az": 1448,
      "ient": 1449,
      "Ġbuild": 1450,
      "Ġused": 1451,
      "irc": 1452,
      "Ġevening": 1453,
      "'ll": 1454,
      "med": 1455,
      "oint": 1456,
      "inter": 1457,
      "Ġprov": 1458,
      "ĠVer": 1459,
      "Ġ191": 1460,
      "OU": 1461,
      "Ġlife": 1462,
      "Ġpoint": 1463,
      "ane": 1464,
      "Ġ17": 1465,
      "Ġals": 1466,
      "Ġ16": 1467,
      "Ġ40": 1468,
      "nes": 1469,
      "ene": 1470,
      "Ġfre": 1471,
      "de": 1472,
      "Ġleg": 1473,
      "ux": 1474,
      "'m": 1475,
      "Ġba": 1476,
      "ized": 1477,
      "Ġbar": 1478,
      "ĠFr": 1479,
      "Ġplants": 1480,
      "ued": 1481,
      "ĠChar": 1482,
      "Ġkind": 1483,
      "Ġsays": 1484,
      "Ġgeneral": 1485,
      "ĠRev": 1486,
      "Ġcome": 1487,
      "âĢĶ": 1488,
      "Ġeffect": 1489,
      "Ġlight": 1490,
      "Ġgener": 1491,
      "ittee": 1492,
      "ĠâĢŀ": 1493,
      "ĠAND": 1494,
      "ney": 1495,
      "Ġ50": 1496,
      "ĠHar": 1497,
      "Ġsecond": 1498,
      "ple": 1499,
      "ĠCity": 1500,
      "Ġschool": 1501,
      "Ġvol": 1502,
      "oy": 1503,
      "enty": 1504,
      "ĠDr": 1505,
      "ever": 1506,
      "ĠOff": 1507,
      "sch": 1508,
      "ĠJu": 1509,
      ".)": 1510,
      "Ġrun": 1511,
      "Ġreceived": 1512,
      "ually": 1513,
      "Ġcap": 1514,
      "Ġwor": 1515,
      "Ġbei": 1516,
      "iii": 1517,
      "Ġhour": 1518,
      "Ġsale": 1519,
      "Ġname": 1520,
      "Ġmoney": 1521,
      "cks": 1522,
      "Ġput": 1523,
      "ec": 1524,
      "Ġeine": 1525,
      "Ġcertain": 1526,
      "Ġread": 1527,
      "Ġdou": 1528,
      "ĠMc": 1529,
      "Ġcla": 1530,
      "ational": 1531,
      "dj": 1532,
      "ages": 1533,
      "25": 1534,
      "Ġlow": 1535,
      "Ġcur": 1536,
      "ister": 1537,
      "Ġroom": 1538,
      "ĠWilliam": 1539,
      "ĠAug": 1540,
      "Ġshort": 1541,
      "rie": 1542,
      "idence": 1543,
      "Ġcondition": 1544,
      "Ġ+": 1545,
      "Ġmet": 1546,
      "Ġrest": 1547,
      "rn": 1548,
      "ator": 1549,
      "ĠPer": 1550,
      "Ġcame": 1551,
      "ote": 1552,
      "Ġhalf": 1553,
      "Ġground": 1554,
      "lle": 1555,
      "Ġvisit": 1556,
      "Ġwom": 1557,
      "Ġdi": 1558,
      "ĠCount": 1559,
      "iew": 1560,
      "ĠGeor": 1561,
      "Ġmod": 1562,
      "ĠNorth": 1563,
      "Ġconf": 1564,
      "Ġmeeting": 1565,
      "oo": 1566,
      "aft": 1567,
      "Ġbas": 1568,
      "ift": 1569,
      "Ġsk": 1570,
      "ards": 1571,
      "Ġcr": 1572,
      "ling": 1573,
      "alth": 1574,
      "Ġson": 1575,
      "ĠWhen": 1576,
      "ital": 1577,
      "ils": 1578,
      "reg": 1579,
      "resent": 1580,
      "ĠAb": 1581,
      "Ġcalled": 1582,
      "ised": 1583,
      "Ġ190": 1584,
      "Ġclo": 1585,
      "Ġfind": 1586,
      "Â¬": 1587,
      "Ġfree": 1588,
      "use": 1589,
      "Ġsold": 1590,
      "ĠCa": 1591,
      "Ġstand": 1592,
      "Ġft": 1593,
      "burg": 1594,
      "ĠAmerican": 1595,
      "Ġfine": 1596,
      "ron": 1597,
      "ĠAm": 1598,
      "Ġyesterday": 1599,
      "ule": 1600,
      "ĠMan": 1601,
      "ĠDem": 1602,
      "ster": 1603,
      "Ġchild": 1604,
      "OT": 1605,
      "road": 1606,
      "Ġask": 1607,
      "ĠCour": 1608,
      "Ġanother": 1609,
      "clud": 1610,
      "ago": 1611,
      "Ġsuff": 1612,
      "Ġamong": 1613,
      "ime": 1614,
      "ID": 1615,
      "ĠWest": 1616,
      "ately": 1617,
      "Ġprob": 1618,
      "most": 1619,
      "zen": 1620,
      "ring": 1621,
      "aum": 1622,
      "iel": 1623,
      "Ġnicht": 1624,
      "Ġmatter": 1625,
      "Ġpri": 1626,
      "ither": 1627,
      "ĠSu": 1628,
      "Ġss": 1629,
      "Ġinc": 1630,
      "Ġcharact": 1631,
      "Ġanim": 1632,
      "Ġdel": 1633,
      "ĠSl": 1634,
      "bert": 1635,
      "Ġstru": 1636,
      "Ġcourt": 1637,
      "Ġseen": 1638,
      "vered": 1639,
      "ccess": 1640,
      "ĠWashington": 1641,
      "AD": 1642,
      "Ġty": 1643,
      "Ġcut": 1644,
      "bor": 1645,
      "ĠON": 1646,
      "owers": 1647,
      "ĠSm": 1648,
      "bft": 1649,
      "Ġleav": 1650,
      "ca": 1651,
      "ette": 1652,
      "Ġbel": 1653,
      "Ġbody": 1654,
      "cs": 1655,
      "Ġdra": 1656,
      "Ġcompany": 1657,
      "âĸ": 1658,
      "els": 1659,
      "Ġsw": 1660,
      "Ġfig": 1661,
      "ility": 1662,
      "the": 1663,
      "ĠPar": 1664,
      "ĠJud": 1665,
      "Ġquest": 1666,
      "ĠLa": 1667,
      "ĠQu": 1668,
      "Ġparty": 1669,
      "ville": 1670,
      "Ġbelie": 1671,
      "ume": 1672,
      "amm": 1673,
      "ĠWith": 1674,
      "Ġroad": 1675,
      "ĠComp": 1676,
      "iter": 1677,
      "Ġarri": 1678,
      "velop": 1679,
      "Ġref": 1680,
      "ks": 1681,
      "40": 1682,
      "Ġturn": 1683,
      "Ġcorn": 1684,
      "Ġav": 1685,
      "Ġappear": 1686,
      "Ġ\\": 1687,
      "Ġ21": 1688,
      "Ġhard": 1689,
      "lish": 1690,
      "Ġgovern": 1691,
      "Ġsouth": 1692,
      "Ġbes": 1693,
      "ĠCal": 1694,
      "Ġdies": 1695,
      "ĠPresident": 1696,
      "Ġobs": 1697,
      "IE": 1698,
      "stem": 1699,
      "uck": 1700,
      "Ġsol": 1701,
      "ĠLou": 1702,
      "Ġbill": 1703,
      "nb": 1704,
      "Ġtem": 1705,
      "omm": 1706,
      "Ġnorth": 1707,
      "Ġpast": 1708,
      "âĸł": 1709,
      "Ġblack": 1710,
      "Ġwrit": 1711,
      "pper": 1712,
      "ĠSen": 1713,
      "ĠYou": 1714,
      "Ġfriends": 1715,
      "UN": 1716,
      "Ġhab": 1717,
      "AC": 1718,
      "Ġrail": 1719,
      "ways": 1720,
      "yl": 1721,
      "rand": 1722,
      "Ġdef": 1723,
      "undred": 1724,
      "iten": 1725,
      "Ġstri": 1726,
      "hing": 1727,
      "Ġopp": 1728,
      "Ġpurp": 1729,
      "ĠOne": 1730,
      "Ġamount": 1731,
      "Ġwent": 1732,
      "Ġeas": 1733,
      "leg": 1734,
      "ĠSund": 1735,
      "Ġ199": 1736,
      "ĠJuly": 1737,
      "inal": 1738,
      "Ġequ": 1739,
      "ĠGarten": 1740,
      "Ġsom": 1741,
      "Ġcents": 1742,
      "ĠThat": 1743,
      "Ġago": 1744,
      "sr": 1745,
      "ĠPhil": 1746,
      "ica": 1747,
      "Ġemp": 1748,
      "Ãª": 1749,
      "Ġfav": 1750,
      "Ġonce": 1751,
      "pted": 1752,
      "ĠCourt": 1753,
      "19": 1754,
      "Ġclose": 1755,
      "ĠMa": 1756,
      "ipp": 1757,
      "Ġwithin": 1758,
      "ĠOh": 1759,
      "ĠDR": 1760,
      "Ġsuccess": 1761,
      "Ġdr": 1762,
      "ints": 1763,
      "Ġpartic": 1764,
      "ĠNot": 1765,
      "ĠOct": 1766,
      "rices": 1767,
      "Ġcare": 1768,
      "Ġtrans": 1769,
      "Ġ185": 1770,
      "Â»": 1771,
      "Ġpet": 1772,
      "Ġmight": 1773,
      "Ġhold": 1774,
      "Ġlim": 1775,
      "Ġbeaut": 1776,
      "ĠÃ¼ber": 1777,
      "Ġ186": 1778,
      "atch": 1779,
      "Ġmembers": 1780,
      "por": 1781,
      "inc": 1782,
      "ĠVI": 1783,
      "OL": 1784,
      "Ġcre": 1785,
      "Ġdoes": 1786,
      "unt": 1787,
      "ourn": 1788,
      "Ġwant": 1789,
      "cip": 1790,
      "Ġeng": 1791,
      "Ġsil": 1792,
      "pril": 1793,
      "fc": 1794,
      "ention": 1795,
      "Ġsince": 1796,
      "ĠJune": 1797,
      "Ġbecause": 1798,
      "Ġkeep": 1799,
      "Ġwhole": 1800,
      "ĠCounty": 1801,
      "ĠPe": 1802,
      "Ġincre": 1803,
      "elt": 1804,
      "gel": 1805,
      "Ġcirc": 1806,
      "Ġset": 1807,
      "Ġfall": 1808,
      "Ġsign": 1809,
      "Ġwife": 1810,
      "Ġfamily": 1811,
      "Ġcost": 1812,
      "Ġaway": 1813,
      "ui": 1814,
      "Ġviii": 1815,
      "Ġord": 1816,
      "Ġorgan": 1817,
      "ERS": 1818,
      "ĠJan": 1819,
      "rag": 1820,
      "uthor": 1821,
      "na": 1822,
      "ices": 1823,
      "ĠPa": 1824,
      "ored": 1825,
      "Ġplus": 1826,
      "icago": 1827,
      "Ġexper": 1828,
      "here": 1829,
      "Ġlate": 1830,
      "lin": 1831,
      "ocrat": 1832,
      "ellow": 1833,
      "Ġhowever": 1834,
      "aring": 1835,
      "Ġtoo": 1836,
      "Ġstrong": 1837,
      "Ġothers": 1838,
      "ĠBY": 1839,
      "used": 1840,
      "ites": 1841,
      "Ġbis": 1842,
      "Ġfol": 1843,
      "ĠCH": 1844,
      "ma": 1845,
      "lied": 1846,
      "Ġalmost": 1847,
      "iversity": 1848,
      "arden": 1849,
      "Ġmir": 1850,
      "Ġmiles": 1851,
      "itu": 1852,
      "Ġsuper": 1853,
      "Ġentire": 1854,
      "ĠID": 1855,
      "ĠBer": 1856,
      "ĠCor": 1857,
      "Ġlead": 1858,
      "Ġtrou": 1859,
      "ee": 1860,
      "Â«": 1861,
      "ĠMond": 1862,
      "ros": 1863,
      "Ġdas": 1864,
      "III": 1865,
      "Ġ31": 1866,
      "ĠGeneral": 1867,
      "Ġthink": 1868,
      "Ġsoon": 1869,
      "ully": 1870,
      "ified": 1871,
      "uff": 1872,
      "ĠSan": 1873,
      "Ġpub": 1874,
      "Ġfive": 1875,
      "Ġhundred": 1876,
      "ĠFig": 1877,
      "Ġmonths": 1878,
      "Ġred": 1879,
      "Ġve": 1880,
      "Ġsich": 1881,
      "ĠApril": 1882,
      "Ġconc": 1883,
      "aff": 1884,
      "EC": 1885,
      "ĠMo": 1886,
      "ĠMarch": 1887,
      "ession": 1888,
      ",.": 1889,
      "ĠAg": 1890,
      "ĠHouse": 1891,
      "Ġnecess": 1892,
      "Ġlater": 1893,
      "ĠAss": 1894,
      "Ġ22": 1895,
      "ams": 1896,
      "not": 1897,
      "Ġstill": 1898,
      "ĠTw": 1899,
      "Ġrepresent": 1900,
      "iled": 1901,
      "Ã©s": 1902,
      "ĠIa": 1903,
      "ending": 1904,
      "cher": 1905,
      "ĠSunday": 1906,
      "Ġrs": 1907,
      "Ġdiff": 1908,
      "Ġsell": 1909,
      "gin": 1910,
      "illed": 1911,
      "Ġ]": 1912,
      "Ġauch": 1913,
      "Ġclaim": 1914,
      "ĠEl": 1915,
      "ĠTer": 1916,
      "Ġcell": 1917,
      "fect": 1918,
      "Ġgrand": 1919,
      "hl": 1920,
      "ĠGer": 1921,
      "Ġcal": 1922,
      "ĠSatur": 1923,
      "ĠOffice": 1924,
      "Ġ..": 1925,
      "ĠLouis": 1926,
      "cul": 1927,
      "ĠFOR": 1928,
      "Ġune": 1929,
      "Ġdon": 1930,
      "Ġalong": 1931,
      "Ġperson": 1932,
      "Ġstud": 1933,
      "Ġcou": 1934,
      "Ġut": 1935,
      "ĠMonday": 1936,
      "Ġtwenty": 1937,
      "Ġhands": 1938,
      "Ġearly": 1939,
      "Ġinches": 1940,
      "attle": 1941,
      "Ġop": 1942,
      "Ġdise": 1943,
      "Ġbic": 1944,
      "Ġnom": 1945,
      "ision": 1946,
      "Ġbetter": 1947,
      "TH": 1948,
      "ying": 1949,
      "Ġmus": 1950,
      "iment": 1951,
      "Ġtest": 1952,
      "Ġsystem": 1953,
      "clock": 1954,
      "fa": 1955,
      "Ġdone": 1956,
      "aster": 1957,
      "ĠNE": 1958,
      "ĠChicago": 1959,
      "ĠCOM": 1960,
      "Ġaccount": 1961,
      "Ġpower": 1962,
      "Ġfront": 1963,
      "Ġoffer": 1964,
      "Ġproperty": 1965,
      "ony": 1966,
      "ĠSpe": 1967,
      "Ġyet": 1968,
      "ones": 1969,
      "augh": 1970,
      "ĠTor": 1971,
      "ĠBy": 1972,
      "artment": 1973,
      ",\"": 1974,
      "Ġimport": 1975,
      "Ġfire": 1976,
      "ances": 1977,
      "Ġtn": 1978,
      "ĠÂ£": 1979,
      "Ġalways": 1980,
      "Ġfarm": 1981,
      "ken": 1982,
      "Ġsing": 1983,
      "Ġ26": 1984,
      "ciety": 1985,
      "Ġfont": 1986,
      "nen": 1987,
      "Ġtrees": 1988,
      "Ġworld": 1989,
      "ribed": 1990,
      "Ġant": 1991,
      "fte": 1992,
      "estern": 1993,
      "Ġdevelop": 1994,
      "Ġresult": 1995,
      "Ġhor": 1996,
      "iger": 1997,
      "cing": 1998,
      "ians": 1999,
      "Ġtook": 2000,
      "ics": 2001,
      "ĠHis": 2002,
      "omp": 2003,
      "vers": 2004,
      "Ġpaper": 2005,
      "Ġtion": 2006,
      "Ġnur": 2007,
      "abor": 2008,
      "Ġprin": 2009,
      "gs": 2010,
      "Ġia": 2011,
      "noon": 2012,
      "Ġcharacter": 2013,
      "ĠEs": 2014,
      "........": 2015,
      "ni": 2016,
      "itted": 2017,
      "Ġpop": 2018,
      "ilt": 2019,
      "ĠGovern": 2020,
      "Ġtro": 2021,
      "inct": 2022,
      "ĠGeorge": 2023,
      "Ġthough": 2024,
      "ĠThese": 2025,
      "ĠSaturday": 2026,
      "Ġlocal": 2027,
      "Ġcommittee": 2028,
      "Ġcit": 2029,
      "Ġdiv": 2030,
      "Ġsal": 2031,
      "ength": 2032,
      "Ġ29": 2033,
      "ati": 2034,
      "ĠHo": 2035,
      "Ġcomple": 2036,
      "ords": 2037,
      "Ġdisc": 2038,
      "Ġda": 2039,
      "Ġauthor": 2040,
      "Ġspecim": 2041,
      "imes": 2042,
      "ĠJames": 2043,
      "US": 2044,
      "Ġprof": 2045,
      "EM": 2046,
      "ham": 2047,
      "Ġneed": 2048,
      "Ġclass": 2049,
      "Ġcases": 2050,
      "Ġoften": 2051,
      "Ġrespect": 2052,
      "IV": 2053,
      "uro": 2054,
      "10": 2055,
      "Ġnach": 2056,
      "Ġ24": 2057,
      "ĠBar": 2058,
      "ining": 2059,
      "Ġsen": 2060,
      "Ġinform": 2061,
      "ĠÃ©t": 2062,
      "Ġdark": 2063,
      "Ġeft": 2064,
      "ination": 2065,
      "Ġsubject": 2066,
      "ato": 2067,
      "Ġnearly": 2068,
      "Ġabs": 2069,
      "Ġhy": 2070,
      "range": 2071,
      "orts": 2072,
      "sw": 2073,
      "venue": 2074,
      "Ġfurn": 2075,
      "ĠChe": 2076,
      "Ġbrought": 2077,
      "Ġbra": 2078,
      "Ġdans": 2079,
      "IG": 2080,
      "ana": 2081,
      "Ġdifferent": 2082,
      "cis": 2083,
      "On": 2084,
      "ĠCent": 2085,
      "je": 2086,
      "Ġformer": 2087,
      "Ġ60": 2088,
      "rew": 2089,
      "ete": 2090,
      "Ġwer": 2091,
      "Ġwest": 2092,
      "Ġdisp": 2093,
      "Ġtimes": 2094,
      "ĠFrom": 2095,
      "Ġcause": 2096,
      "ached": 2097,
      "Ġaber": 2098,
      "ĠDist": 2099,
      "iol": 2100,
      "Ġbank": 2101,
      "Ġfair": 2102,
      "Ġcourse": 2103,
      "Ġable": 2104,
      "Ġspecial": 2105,
      "Ġsize": 2106,
      "Ġartic": 2107,
      "Ġll": 2108,
      "avy": 2109,
      "Ġinclud": 2110,
      "val": 2111,
      "Ġtie": 2112,
      "iden": 2113,
      "Ġorig": 2114,
      "Ġiss": 2115,
      "ceed": 2116,
      "Ġdeath": 2117,
      "ĠProf": 2118,
      "Ġseed": 2119,
      "ips": 2120,
      "Ġchurch": 2121,
      "ressed": 2122,
      "ino": 2123,
      "Ġ49": 2124,
      "erk": 2125,
      "Ġtoday": 2126,
      "Ġ''": 2127,
      "Ġcommon": 2128,
      "ounds": 2129,
      "ald": 2130,
      "irt": 2131,
      "Ġoccur": 2132,
      "Ġfavor": 2133,
      "Ġdurch": 2134,
      "Ġhat": 2135,
      "Ġoffice": 2136,
      "Ġ197": 2137,
      "ula": 2138,
      "Ġrefer": 2139,
      "Ġafternoon": 2140,
      "iving": 2141,
      "Ġ[": 2142,
      "ering": 2143,
      "go": 2144,
      "raph": 2145,
      "iful": 2146,
      "Ġ900": 2147,
      "Ġwood": 2148,
      "Ġresp": 2149,
      "cd": 2150,
      "ĠUniversity": 2151,
      "20": 2152,
      "cht": 2153,
      "CH": 2154,
      "hib": 2155,
      "ĠFrank": 2156,
      "vention": 2157,
      "Ġstat": 2158,
      "iner": 2159,
      "urt": 2160,
      "ids": 2161,
      "rist": 2162,
      "Ġinf": 2163,
      "Ġdirect": 2164,
      "Ġleaves": 2165,
      "Ġplay": 2166,
      "Ġmarket": 2167,
      "idge": 2168,
      "itor": 2169,
      "ĠSer": 2170,
      "Ġmaking": 2171,
      "Ġquestion": 2172,
      "enden": 2173,
      "Ġhon": 2174,
      "Ġbuilding": 2175,
      "tem": 2176,
      "ĠDep": 2177,
      "ries": 2178,
      "Ġappro": 2179,
      "Ġposition": 2180,
      "Ġ33": 2181,
      "lor": 2182,
      "Ġgreen": 2183,
      "atural": 2184,
      "ait": 2185,
      "ln": 2186,
      "Ġexam": 2187,
      "Ġbur": 2188,
      "ĠCompany": 2189,
      "inen": 2190,
      "sn": 2191,
      "Ġoper": 2192,
      "Ġhimself": 2193,
      "Ġlb": 2194,
      "Ġstart": 2195,
      "teen": 2196,
      "Ġlength": 2197,
      "arch": 2198,
      "fully": 2199,
      "ude": 2200,
      "ford": 2201,
      "Ġdoll": 2202,
      "Ġmid": 2203,
      "Ġview": 2204,
      "gt": 2205,
      "iod": 2206,
      "umb": 2207,
      "Ġ<": 2208,
      "ĠMor": 2209,
      "Ġboard": 2210,
      "outher": 2211,
      "Ã¤r": 2212,
      "lished": 2213,
      "ĠAugust": 2214,
      "Ġseason": 2215,
      "Ġthus": 2216,
      "aining": 2217,
      "bern": 2218,
      "Ġcolor": 2219,
      "rest": 2220,
      "Ġpaid": 2221,
      "ism": 2222,
      "ei": 2223,
      "ĠRich": 2224,
      "Ġ27": 2225,
      "Ġvor": 2226,
      "Ġcross": 2227,
      "Ġregard": 2228,
      "Ġaz": 2229,
      "ĠFeb": 2230,
      "medi": 2231,
      "Ġheart": 2232,
      "Ġpie": 2233,
      "Ġqual": 2234,
      "Ġbeh": 2235,
      "Ġriver": 2236,
      "ĠDav": 2237,
      "Ġthought": 2238,
      "Ġfru": 2239,
      "vert": 2240,
      "ĠColl": 2241,
      "15": 2242,
      "Ġsurf": 2243,
      "oph": 2244,
      "mit": 2245,
      "ik": 2246,
      "Ġcannot": 2247,
      "ds": 2248,
      "Is": 2249,
      "Ã¶r": 2250,
      "str": 2251,
      "ĠHen": 2252,
      "St": 2253,
      "ament": 2254,
      "Th": 2255,
      "ĠSy": 2256,
      "Ġeast": 2257,
      "Ġprice": 2258,
      "Ġwie": 2259,
      "alls": 2260,
      "Ġift": 2261,
      "ĠIll": 2262,
      "Ġpract": 2263,
      "ANT": 2264,
      "ĠÃ´": 2265,
      "yed": 2266,
      "Ġfla": 2267,
      "Ġhig": 2268,
      "cts": 2269,
      "Ġage": 2270,
      "bau": 2271,
      "amed": 2272,
      "thing": 2273,
      "Ġ>": 2274,
      "Ġeither": 2275,
      "ĠTr": 2276,
      "aily": 2277,
      "ows": 2278,
      "Ã¤t": 2279,
      "sten": 2280,
      "Ġsele": 2281,
      "Ġweeks": 2282,
      "ĠJudge": 2283,
      "jor": 2284,
      "bre": 2285,
      "Ġ?": 2286,
      "Ġquar": 2287,
      "Ġgir": 2288,
      "Ġremark": 2289,
      "Ġappoint": 2290,
      "Ġreal": 2291,
      "ender": 2292,
      "ops": 2293,
      "Ġlot": 2294,
      "Ġdoubt": 2295,
      "ĠĠĠĠĠĠĠ": 2296,
      "ested": 2297,
      "ĠHow": 2298,
      "outhern": 2299,
      "Ġobserv": 2300,
      "Ġpurch": 2301,
      "Ġtot": 2302,
      "ĠMon": 2303,
      "Ġconne": 2304,
      "ĠCong": 2305,
      "ĠMed": 2306,
      "ius": 2307,
      "yes": 2308,
      "ences": 2309,
      "ĠSmith": 2310,
      "ĠCan": 2311,
      "ires": 2312,
      "iday": 2313,
      "utes": 2314,
      "erson": 2315,
      "Ġbon": 2316,
      "TER": 2317,
      "Ġmill": 2318,
      "Ġum": 2319,
      "IA": 2320,
      "Ġaction": 2321,
      "wards": 2322,
      "AND": 2323,
      "cri": 2324,
      "Ġmag": 2325,
      "Ġsind": 2326,
      "ÃŁe": 2327,
      "ĠRes": 2328,
      "rodu": 2329,
      "Ġbott": 2330,
      "Ġexcept": 2331,
      "Ġprices": 2332,
      "wh": 2333,
      "bo": 2334,
      "Ġlatter": 2335,
      "rown": 2336,
      "Ġreason": 2337,
      "ba": 2338,
      "Ġworth": 2339,
      "hal": 2340,
      "Ġill": 2341,
      "ĠEr": 2342,
      "Ġarm": 2343,
      "ĠCharles": 2344,
      "Ġprobably": 2345,
      "Ġdistrict": 2346,
      "Ġpassed": 2347,
      ",'": 2348,
      "adel": 2349,
      "Ġimpro": 2350,
      "500": 2351,
      "Ġpoints": 2352,
      "uis": 2353,
      "anb": 2354,
      "elle": 2355,
      "'re": 2356,
      "Ġreturned": 2357,
      "Ġtree": 2358,
      "Ġlower": 2359,
      "ĠTues": 2360,
      "ĠEast": 2361,
      "ĠWil": 2362,
      "ĠAT": 2363,
      "Ġ35": 2364,
      "^^": 2365,
      "Ġnon": 2366,
      "Ġwind": 2367,
      "though": 2368,
      "Ġfif": 2369,
      "utt": 2370,
      "Ġchildren": 2371,
      "Ġcharge": 2372,
      ".'": 2373,
      "iles": 2374,
      "OS": 2375,
      "oup": 2376,
      "Ġobt": 2377,
      "ning": 2378,
      "Ġexc": 2379,
      "Ġsection": 2380,
      "Ġbook": 2381,
      "lp": 2382,
      "Ã©e": 2383,
      "ĠDemocrat": 2384,
      "ules": 2385,
      "Ġflowers": 2386,
      "ilar": 2387,
      "Ġquite": 2388,
      "Ġnothing": 2389,
      "ILL": 2390,
      "ĠWood": 2391,
      "aps": 2392,
      "Ġdue": 2393,
      "Ġger": 2394,
      "Ã¤ng": 2395,
      "Ġsatis": 2396,
      "ĠÂ§": 2397,
      "oses": 2398,
      "ĠBrit": 2399,
      "ĠSep": 2400,
      "Ġpersons": 2401,
      "cret": 2402,
      "ores": 2403,
      "ico": 2404,
      "Ġsel": 2405,
      "Ġwhose": 2406,
      "ischen": 2407,
      "Ġsett": 2408,
      "Ġ198": 2409,
      "Ġtax": 2410,
      "Ġemplo": 2411,
      "Ġfie": 2412,
      "ĠTH": 2413,
      "ump": 2414,
      "Ġmm": 2415,
      "Ġgave": 2416,
      "stit": 2417,
      "Ġchange": 2418,
      "cer": 2419,
      "Ġhealth": 2420,
      "Ġunter": 2421,
      "bb": 2422,
      "Ġfem": 2423,
      "Ġmeas": 2424,
      "Ġcoun": 2425,
      "Ġfer": 2426,
      "eding": 2427,
      "Ġdest": 2428,
      "itz": 2429,
      "Ġdet": 2430,
      "Ġgold": 2431,
      "selves": 2432,
      "isl": 2433,
      "ĠRepublic": 2434,
      "Ġcomplete": 2435,
      "Ġadj": 2436,
      "ises": 2437,
      "ĠGu": 2438,
      "Ġgovernment": 2439,
      "Ġmor": 2440,
      "ulation": 2441,
      "ural": 2442,
      "ording": 2443,
      "Ġfurther": 2444,
      "arf": 2445,
      "ience": 2446,
      "Ġbecome": 2447,
      "Ġasked": 2448,
      "ĠLong": 2449,
      "Ġih": 2450,
      "cially": 2451,
      "va": 2452,
      "ĠIA": 2453,
      "Ġdeep": 2454,
      "Ġbran": 2455,
      "Ġuns": 2456,
      "omas": 2457,
      "Ġbig": 2458,
      "asion": 2459,
      "aterial": 2460,
      "ration": 2461,
      "AP": 2462,
      "pped": 2463,
      "atives": 2464,
      "Ġtor": 2465,
      "ivid": 2466,
      "cent": 2467,
      "ĠWhite": 2468,
      "ada": 2469,
      "Ġround": 2470,
      "ĠPre": 2471,
      "Ġpleas": 2472,
      "Ġfield": 2473,
      "ĠPark": 2474,
      "iar": 2475,
      "Ġeight": 2476,
      "ĠRE": 2477,
      "Ġsteam": 2478,
      "tember": 2479,
      "ĠAfter": 2480,
      "Ġhours": 2481,
      "Ġchang": 2482,
      "Ġfell": 2483,
      "Ġmot": 2484,
      "Ġthing": 2485,
      "Ġaut": 2486,
      "imm": 2487,
      "Ġleast": 2488,
      "Ã¤n": 2489,
      "ened": 2490,
      "Ġstra": 2491,
      "CE": 2492,
      "aa": 2493,
      "Ġpor": 2494,
      "Ġdut": 2495,
      "ĠMin": 2496,
      "Ġparts": 2497,
      "Ġpossible": 2498,
      "Ġgoing": 2499,
      "erous": 2500,
      "Ġlat": 2501,
      "phia": 2502,
      "Ġwoman": 2503,
      "ĠAS": 2504,
      "ober": 2505,
      "for": 2506,
      "Ġlist": 2507,
      "Ġenough": 2508,
      "Ġwel": 2509,
      "Ġrailroad": 2510,
      "Ġthous": 2511,
      "anz": 2512,
      "Ġthor": 2513,
      "ĠEn": 2514,
      "oston": 2515,
      "Ġsqu": 2516,
      "ĠChrist": 2517,
      "Ġvariety": 2518,
      "Ġlang": 2519,
      "Ġâĸł": 2520,
      "Ġaf": 2521,
      "Ġpurpose": 2522,
      "11": 2523,
      "aus": 2524,
      "Ġfeel": 2525,
      "Ġbring": 2526,
      "OW": 2527,
      "yn": 2528,
      "cture": 2529,
      "Ġhum": 2530,
      "ĠJust": 2531,
      "Ġservice": 2532,
      "Ġalle": 2533,
      "Ġrather": 2534,
      "ciation": 2535,
      "Ġmove": 2536,
      "Ġestab": 2537,
      "oice": 2538,
      "Ġbad": 2539,
      "Ġct": 2540,
      "entle": 2541,
      "Ġgot": 2542,
      "Ã¼n": 2543,
      "Ġthird": 2544,
      "ĠVIII": 2545,
      "ĠTuesday": 2546,
      "Ġfun": 2547,
      "ctor": 2548,
      "In": 2549,
      "iu": 2550,
      "Ġdescribed": 2551,
      "stand": 2552,
      "Ġmeans": 2553,
      "ĠIT": 2554,
      "ĠDo": 2555,
      "-.": 2556,
      "gment": 2557,
      "Ġgenerally": 2558,
      "Â§": 2559,
      "Ġetc": 2560,
      "eties": 2561,
      "18": 2562,
      "UL": 2563,
      "Ġaround": 2564,
      "ĠAf": 2565,
      "Ġvot": 2566,
      "Ġoil": 2567,
      "Ġbeautiful": 2568,
      "Ġbed": 2569,
      "Ġseems": 2570,
      "Ġleave": 2571,
      "pid": 2572,
      "ape": 2573,
      "eren": 2574,
      "Ġclear": 2575,
      "hern": 2576,
      "ected": 2577,
      "ĠIm": 2578,
      "GE": 2579,
      "ising": 2580,
      "Ġhot": 2581,
      "Ġadm": 2582,
      "Ġface": 2583,
      "EST": 2584,
      "30": 2585,
      "Ġtell": 2586,
      "Ġmass": 2587,
      "ively": 2588,
      "Ġperiod": 2589,
      "Ġthir": 2590,
      "Ġyellow": 2591,
      "Ġsurface": 2592,
      "Ġbox": 2593,
      "Ġwhom": 2594,
      "Ġprote": 2595,
      "Ġbrown": 2596,
      "Ġswe": 2597,
      "Ġvarious": 2598,
      "Ġrace": 2599,
      "hip": 2600,
      "Ġpun": 2601,
      "Ġgrad": 2602,
      "rr": 2603,
      "gress": 2604,
      "Ġnecessary": 2605,
      "Ġspeak": 2606,
      "Ġofficers": 2607,
      "Ġcand": 2608,
      "IM": 2609,
      "12": 2610,
      "Ġperfect": 2611,
      "Ġpi": 2612,
      "airs": 2613,
      "Ġtoget": 2614,
      "Ġspring": 2615,
      "Ġem": 2616,
      "Ġbem": 2617,
      "ĠÃ´c": 2618,
      "Ġtrue": 2619,
      "ARD": 2620,
      "ĠFriday": 2621,
      "Ġplaced": 2622,
      "Ġvalue": 2623,
      "oon": 2624,
      "Ġfood": 2625,
      "fort": 2626,
      "ĠMary": 2627,
      "ĠVir": 2628,
      "rol": 2629,
      "Ġprev": 2630,
      "Ġtogether": 2631,
      "ĠUnion": 2632,
      "Ġattention": 2633,
      "ednes": 2634,
      "inary": 2635,
      "Ġslight": 2636,
      "ĠSa": 2637,
      "Ġgem": 2638,
      "gest": 2639,
      "Ġeinen": 2640,
      "Ġvent": 2641,
      "ĠPort": 2642,
      "Ġletter": 2643,
      "ĠSpr": 2644,
      "oms": 2645,
      "Ġwin": 2646,
      "ATION": 2647,
      "pre": 2648,
      "ĠAus": 2649,
      "Ġtrain": 2650,
      "Ġdied": 2651,
      "uted": 2652,
      "Ġdev": 2653,
      "Ġsaw": 2654,
      "ĠIndian": 2655,
      "ĠPenn": 2656,
      "ology": 2657,
      "It": 2658,
      "ĠAmerica": 2659,
      "Ġ{": 2660,
      "cil": 2661,
      "ĠBoston": 2662,
      "rick": 2663,
      "ĠÃŁ": 2664,
      "Ġsitu": 2665,
      "Ġcult": 2666,
      "Ġneg": 2667,
      "isc": 2668,
      "Ġsimilar": 2669,
      "ĠSB": 2670,
      "lla": 2671,
      "Ġallow": 2672,
      "Ġeiner": 2673,
      "Ġnotice": 2674,
      "Ġcommun": 2675,
      "Ġdeter": 2676,
      "Ġdaugh": 2677,
      "ĠAL": 2678,
      "ĠHenry": 2679,
      "Ġsun": 2680,
      "ically": 2681,
      "ibus": 2682,
      "Ġwerden": 2683,
      "UT": 2684,
      "ests": 2685,
      "Ġsuit": 2686,
      "Ġje": 2687,
      "ĠLond": 2688,
      "Ġ28": 2689,
      "ĠThomas": 2690,
      "ĠCapt": 2691,
      "adelphia": 2692,
      "Ġave": 2693,
      "pected": 2694,
      "ĠĠĠĠĠĠĠĠĠĠĠĠĠĠĠĠ": 2695,
      "endent": 2696,
      "Ġrock": 2697,
      "Ġrecord": 2698,
      "akes": 2699,
      "Ġ500": 2700,
      "Ġespe": 2701,
      "oke": 2702,
      "edy": 2703,
      "arge": 2704,
      "IST": 2705,
      "fs": 2706,
      "Ġgarden": 2707,
      "Ġdeg": 2708,
      "Ġregular": 2709,
      "dle": 2710,
      "Ġcrop": 2711,
      "Ġattend": 2712,
      "Ġ)": 2713,
      "ĠSec": 2714,
      "van": 2715,
      "ĠÂ«": 2716,
      "tr": 2717,
      "ĠThurs": 2718,
      "Ġdam": 2719,
      "Ġsea": 2720,
      "ization": 2721,
      "ĠHon": 2722,
      "ush": 2723,
      "Ġwit": 2724,
      "ready": 2725,
      "Ġwinter": 2726,
      "ĠCongress": 2727,
      "ethod": 2728,
      "Ġinj": 2729,
      "ĠDistrict": 2730,
      "Ġdeli": 2731,
      "Ġdemand": 2732,
      "Ġlearn": 2733,
      "Ġtry": 2734,
      "Ġnature": 2735,
      "aben": 2736,
      "OM": 2737,
      "ĠSome": 2738,
      "fel": 2739,
      "gar": 2740,
      "ĠSn": 2741,
      "Ġie": 2742,
      "ege": 2743,
      "osa": 2744,
      "ĠSociety": 2745,
      "atus": 2746,
      "75": 2747,
      "ĠBrown": 2748,
      "OC": 2749,
      "Ġprep": 2750,
      "Ġtreat": 2751,
      "resh": 2752,
      "ĠSecret": 2753,
      "Ġaddition": 2754,
      "Ġfort": 2755,
      "ART": 2756,
      "irst": 2757,
      "adies": 2758,
      "Ġstates": 2759,
      "Ġcitiz": 2760,
      "ĠOhio": 2761,
      "ipt": 2762,
      "ante": 2763,
      "rench": 2764,
      "ednesday": 2765,
      "ione": 2766,
      "berg": 2767,
      "ĠGl": 2768,
      "Ġenc": 2769,
      "ĠMex": 2770,
      "ua": 2771,
      "Ġpolit": 2772,
      "fp": 2773,
      "orthern": 2774,
      "well": 2775,
      "inger": 2776,
      "ĠGreen": 2777,
      "con": 2778,
      "alley": 2779,
      "Ġanimals": 2780,
      "Ġsho": 2781,
      "Ġredu": 2782,
      "ĠRail": 2783,
      "ĠNor": 2784,
      "Ġmain": 2785,
      "Ġdeal": 2786,
      "Ġcop": 2787,
      "fi": 2788,
      "Ġtold": 2789,
      "Ġresol": 2790,
      "ka": 2791,
      "Ġsie": 2792,
      "Ã©es": 2793,
      "Ġstore": 2794,
      "ĠTre": 2795,
      "Ġelect": 2796,
      "Ġfoot": 2797,
      "bar": 2798,
      "onds": 2799,
      "Ġreported": 2800,
      "Ġdistinct": 2801,
      "Ġbag": 2802,
      "ĠDec": 2803,
      "Ġober": 2804,
      "Ġgentle": 2805,
      "Ġhorse": 2806,
      "uary": 2807,
      "ander": 2808,
      "Ġ-.": 2809,
      "Ġprincip": 2810,
      "âĻ": 2811,
      "Ġthemselves": 2812,
      "âĻ¦": 2813,
      "yer": 2814,
      "Ġasso": 2815,
      "ults": 2816,
      "onder": 2817,
      "Ġremo": 2818,
      "Ġindic": 2819,
      "Ġ200": 2820,
      "ĠÂ»": 2821,
      "EE": 2822,
      "Ġrev": 2823,
      "ese": 2824,
      "otton": 2825,
      "Ġoccasion": 2826,
      "ĠAc": 2827,
      "wing": 2828,
      "Ġcamp": 2829,
      "Ġrate": 2830,
      "Ġpresident": 2831,
      "Ġbase": 2832,
      "Ġexist": 2833,
      "Ġfollows": 2834,
      "Ġpriv": 2835,
      "tens": 2836,
      "clus": 2837,
      "ĠDE": 2838,
      "resp": 2839,
      "Ġshown": 2840,
      "ĠNEW": 2841,
      "Ġwide": 2842,
      "Ã¨s": 2843,
      "ĠPhiladelphia": 2844,
      "ĠLondon": 2845,
      "Ġalready": 2846,
      "sc": 2847,
      "ansas": 2848,
      "eit": 2849,
      "mi": 2850,
      "45": 2851,
      "ĠGra": 2852,
      "Or": 2853,
      "Ġdaily": 2854,
      "Ġhapp": 2855,
      "Ġcold": 2856,
      "Ġmanner": 2857,
      "irs": 2858,
      "Ġnor": 2859,
      "Ġstreets": 2860,
      "atal": 2861,
      "cp": 2862,
      "Ġaddress": 2863,
      "cf": 2864,
      "ĠSur": 2865,
      "ĠSeptember": 2866,
      "ih": 2867,
      "Ie": 2868,
      "Ġvote": 2869,
      "Ġmother": 2870,
      "ften": 2871,
      "ama": 2872,
      "icult": 2873,
      "igned": 2874,
      "ĠSecretary": 2875,
      "read": 2876,
      "Ġnamed": 2877,
      "ense": 2878,
      "Ġblood": 2879,
      "UM": 2880,
      "Ġcorner": 2881,
      "ĠReg": 2882,
      "Ġfirm": 2883,
      "Ġjo": 2884,
      "ĠBoard": 2885,
      "unk": 2886,
      "Ġwhether": 2887,
      "gl": 2888,
      "ĠMus": 2889,
      "Ġdead": 2890,
      "ĠChurch": 2891,
      "Ġrich": 2892,
      "po": 2893,
      "ĠZool": 2894,
      "gy": 2895,
      "ora": 2896,
      "AV": 2897,
      "Ġsoil": 2898,
      "Ġexpress": 2899,
      "Ġdisco": 2900,
      "era": 2901,
      "Ġnatural": 2902,
      "Ġthings": 2903,
      "ALE": 2904,
      "fd": 2905,
      "ĠDon": 2906,
      "Ġelection": 2907,
      "urope": 2908,
      "ĠAfric": 2909,
      "Ġmind": 2910,
      "Ġsugg": 2911,
      "Ġeyes": 2912,
      "vo": 2913,
      "Ġoccup": 2914,
      "Ġou": 2915,
      "Ġball": 2916,
      "ixed": 2917,
      "Ġcry": 2918,
      "ĠInter": 2919,
      "Ġindivid": 2920,
      "Ġpos": 2921,
      "ĠThursday": 2922,
      "Ġloss": 2923,
      "ELL": 2924,
      "ĠMem": 2925,
      "ĠOctober": 2926,
      "Ġsingle": 2927,
      "ĠRock": 2928,
      "ĠApp": 2929,
      "Ġsummer": 2930,
      "ende": 2931,
      "ĠEngland": 2932,
      "oud": 2933,
      "ĠMont": 2934,
      "Ġsus": 2935,
      "Ġ,,": 2936,
      "'d": 2937,
      "Ġmaterial": 2938,
      "ĠLake": 2939,
      "Ġacres": 2940,
      "ĠHol": 2941,
      "ĠTwo": 2942,
      "bra": 2943,
      "Ġcure": 2944,
      "abe": 2945,
      "cle": 2946,
      "Ġlost": 2947,
      "Ġnoch": 2948,
      "lex": 2949,
      "ĠCON": 2950,
      "ĠBur": 2951,
      "Ġvir": 2952,
      "ĠJose": 2953,
      "Â£": 2954,
      "ĠIsland": 2955,
      "iers": 2956,
      "Ġbelow": 2957,
      "Ġimportant": 2958,
      "wood": 2959,
      "Ġconditions": 2960,
      "Ġpot": 2961,
      "ĠDes": 2962,
      "aged": 2963,
      "ĠAnn": 2964,
      "Ġjud": 2965,
      "lant": 2966,
      "Ġpress": 2967,
      "ĠNational": 2968,
      "Ġavenue": 2969,
      "Ġwr": 2970,
      "Ġfather": 2971,
      "Ġgoods": 2972,
      "ĠMain": 2973,
      "ĠPost": 2974,
      "Ġarrived": 2975,
      "Â°": 2976,
      "Ġphys": 2977,
      "ha": 2978,
      "As": 2979,
      "ein": 2980,
      "Ġship": 2981,
      "lc": 2982,
      "bst": 2983,
      "ĠFrench": 2984,
      "Ġestate": 2985,
      "fo": 2986,
      "Ġbi": 2987,
      "Ġthick": 2988,
      "ĠStreet": 2989,
      "Ġado": 2990,
      ".;": 2991,
      "cept": 2992,
      "sss": 2993,
      "Ġrecently": 2994,
      "osp": 2995,
      "atic": 2996,
      "Ġheard": 2997,
      "icient": 2998,
      "Ġsupport": 2999,
      "Ġfrequ": 3000,
      "ĠGood": 3001,
      "Ġdollars": 3002,
      "Ġlabor": 3003,
      "Ġexhib": 3004,
      "ĠCle": 3005,
      "Ġsubs": 3006,
      "sequ": 3007,
      "ĠWednesday": 3008,
      "Ġair": 3009,
      "Ġvar": 3010,
      "ho": 3011,
      "Ġeinem": 3012,
      "ĠMer": 3013,
      "ÃŁen": 3014,
      "ida": 3015,
      "ungs": 3016,
      "rÃ¤": 3017,
      "ĠFrancis": 3018,
      "Ġannoun": 3019,
      "ado": 3020,
      "Ġdri": 3021,
      "Ġfruit": 3022,
      "ATE": 3023,
      "Ġexpl": 3024,
      "ĠEurope": 3025,
      "Ġvarieties": 3026,
      "Ġband": 3027,
      "Ġtom": 3028,
      "ological": 3029,
      "rd": 3030,
      "Ġta": 3031,
      "lled": 3032,
      "iding": 3033,
      "Ġrocks": 3034,
      "Ġlay": 3035,
      "Ġheavy": 3036,
      "Ġtu": 3037,
      "Ġwild": 3038,
      "Ġsecret": 3039,
      "Ġcash": 3040,
      "Ġsure": 3041,
      "Ġespecially": 3042,
      "tre": 3043,
      "Ġwir": 3044,
      "Ġmach": 3045,
      "ĠPol": 3046,
      "Ġcoming": 3047,
      "Ġplan": 3048,
      "Ġtherefore": 3049,
      "Ġplaces": 3050,
      "Ġsi": 3051,
      "Ġinvest": 3052,
      "hy": 3053,
      "ĠSam": 3054,
      "ĠMy": 3055,
      "etimes": 3056,
      "ĠSw": 3057,
      "Ġpa": 3058,
      "Ġemb": 3059,
      "Ġrelie": 3060,
      "Ġansw": 3061,
      "ĠKing": 3062,
      "inning": 3063,
      "uel": 3064,
      "Ġfac": 3065,
      "Ã¢": 3066,
      "ĠGru": 3067,
      "Ġide": 3068,
      "vey": 3069,
      "ICE": 3070,
      "ws": 3071,
      "ota": 3072,
      "lichen": 3073,
      "Ġwomen": 3074,
      "RI": 3075,
      "Ġpour": 3076,
      "Ġbelieve": 3077,
      "Ġaver": 3078,
      "Ġbef": 3079,
      "ESS": 3080,
      "Ġcred": 3081,
      "ouses": 3082,
      "Ġbor": 3083,
      "Ġnig": 3084,
      "ĠMass": 3085,
      "istory": 3086,
      "Ġextra": 3087,
      "ĠTra": 3088,
      "Ġanten": 3089,
      "Ġers": 3090,
      "Ġgut": 3091,
      "Ġusually": 3092,
      "Ġpen": 3093,
      "Ġhelp": 3094,
      "uous": 3095,
      "Ġard": 3096,
      "Ġang": 3097,
      "Ġappar": 3098,
      "iforn": 3099,
      "Ġportion": 3100,
      "Ġrange": 3101,
      "26": 3102,
      "THE": 3103,
      "Ġassist": 3104,
      "Ġclub": 3105,
      "Ġkept": 3106,
      "Ġlands": 3107,
      "ston": 3108,
      "ĠVirgin": 3109,
      "fÃ¼": 3110,
      "Ġblock": 3111,
      "Ġdate": 3112,
      "ĠEnglish": 3113,
      "Ġcandid": 3114,
      "Ġsepar": 3115,
      "Ġcarried": 3116,
      "ĠGreat": 3117,
      "24": 3118,
      "fr": 3119,
      "arr": 3120,
      "sem": 3121,
      "ĠHa": 3122,
      "Ġfully": 3123,
      "ĠTex": 3124,
      "Ġspecimens": 3125,
      "Ġtotal": 3126,
      "Ġont": 3127,
      "Ġegg": 3128,
      "amb": 3129,
      "Ġdescri": 3130,
      "Ġcapt": 3131,
      "Ġwo": 3132,
      "ables": 3133,
      "AB": 3134,
      "ĠBank": 3135,
      "ĠFirst": 3136,
      "Ġcondu": 3137,
      "Ġuno": 3138,
      "Ġkilled": 3139,
      "Ss": 3140,
      "Ġfut": 3141,
      "ano": 3142,
      "Ġthirty": 3143,
      "Ġ45": 3144,
      "Ġgel": 3145,
      "Ġlines": 3146,
      "ĠSal": 3147,
      "enth": 3148,
      "uit": 3149,
      "ura": 3150,
      "Ġfinb": 3151,
      "AG": 3152,
      "ĠdÃ©": 3153,
      "icul": 3154,
      "Ġrapid": 3155,
      "ĠNov": 3156,
      "respond": 3157,
      "Ġcarry": 3158,
      "Ġmember": 3159,
      "Ġdaughter": 3160,
      "35": 3161,
      "ĠOur": 3162,
      "Ġweather": 3163,
      "ĠBi": 3164,
      "Ġparticular": 3165,
      "Ġol": 3166,
      "TS": 3167,
      "antly": 3168,
      "ĠSC": 3169,
      "ĠPal": 3170,
      "Ġmajor": 3171,
      "Ġhope": 3172,
      "Ġtop": 3173,
      "cient": 3174,
      "uen": 3175,
      "Ġdom": 3176,
      "Ġfon": 3177,
      "Ġnit": 3178,
      "ĠJanuary": 3179,
      "bed": 3180,
      "eg": 3181,
      "ship": 3182,
      "Ġopin": 3183,
      "ĠWhat": 3184,
      "Ġdisease": 3185,
      "TON": 3186,
      "Ġready": 3187,
      "ĠSchool": 3188,
      "Ġbat": 3189,
      "anc": 3190,
      "ĠGes": 3191,
      "Ġfi": 3192,
      "Ġcrow": 3193,
      "uns": 3194,
      "Ġalthough": 3195,
      "Ġmakes": 3196,
      "uts": 3197,
      "Ġzur": 3198,
      "ĠPaul": 3199,
      "ĠDis": 3200,
      "Ġforce": 3201,
      "Ġgrowth": 3202,
      "Ãł": 3203,
      "chn": 3204,
      "ĠPo": 3205,
      "Ã¤nd": 3206,
      "ĠArt": 3207,
      "Ġdry": 3208,
      "Ġevidence": 3209,
      "ĠPac": 3210,
      "urer": 3211,
      "ĠCarol": 3212,
      "Ġpal": 3213,
      "ĠThen": 3214,
      "ĠGrand": 3215,
      "22": 3216,
      "ĠGerman": 3217,
      "uer": 3218,
      "ĠAtt": 3219,
      "ĠPkt": 3220,
      "osen": 3221,
      "acher": 3222,
      "ĠDece": 3223,
      "ĠHall": 3224,
      "ager": 3225,
      "16": 3226,
      "yal": 3227,
      "ufact": 3228,
      "Ġmic": 3229,
      "iously": 3230,
      "nr": 3231,
      "ancy": 3232,
      "ĠOp": 3233,
      "Ġ].": 3234,
      "Ġcomb": 3235,
      "oma": 3236,
      "Ġbreak": 3237,
      "Ġbenef": 3238,
      "Ġstated": 3239,
      "ĠAnt": 3240,
      "ounded": 3241,
      "Ġtaking": 3242,
      "Ġchief": 3243,
      "-,": 3244,
      "Ġlarger": 3245,
      "ifornia": 3246,
      "Ġboy": 3247,
      "Ġgreater": 3248,
      "Ġoder": 3249,
      "ĠRepublican": 3250,
      "Ġhorn": 3251,
      "ĠFe": 3252,
      "ference": 3253,
      "ogn": 3254,
      "vi": 3255,
      "ĠLes": 3256,
      "Ġdeux": 3257,
      "Ġarrest": 3258,
      "Ġseven": 3259,
      "pes": 3260,
      "ĠGold": 3261,
      "PP": 3262,
      "ĠMill": 3263,
      "ĠRiver": 3264,
      "Ġ36": 3265,
      "Ġmis": 3266,
      "ĠBE": 3267,
      "ĠKe": 3268,
      "SS": 3269,
      "ĠHill": 3270,
      "iform": 3271,
      "Ġcontract": 3272,
      "Ġanimal": 3273,
      "ĠBlack": 3274,
      "ĠDen": 3275,
      "Ġvers": 3276,
      "Ġdecided": 3277,
      "NE": 3278,
      "ĠImp": 3279,
      "Ġfast": 3280,
      "ommen": 3281,
      "Ġinformation": 3282,
      "Ġwa": 3283,
      "Ġorn": 3284,
      "Ġdoor": 3285,
      "ails": 3286,
      "mon": 3287,
      "ĠWhe": 3288,
      "omes": 3289,
      "Ġcommission": 3290,
      "Ġpoor": 3291,
      "ĠCommission": 3292,
      "iy": 3293,
      "Ġliving": 3294,
      "Ġfail": 3295,
      "Ġpas": 3296,
      "Ġmat": 3297,
      "Ġhereby": 3298,
      "Ġturned": 3299,
      "Ġ600": 3300,
      "ĠParis": 3301,
      "Ġsatisf": 3302,
      "Ġhus": 3303,
      "ĠDO": 3304,
      "ĠVirginia": 3305,
      "orses": 3306,
      "Ġfriend": 3307,
      "AK": 3308,
      "hs": 3309,
      "Ġtick": 3310,
      "ĠAsso": 3311,
      "Ġtemper": 3312,
      "ias": 3313,
      "ĠPs": 3314,
      "rage": 3315,
      "Ġcaused": 3316,
      "ĠSE": 3317,
      "ĠMag": 3318,
      "Ġreach": 3319,
      "sey": 3320,
      "ĠJack": 3321,
      "Ġsav": 3322,
      "ĠEnt": 3323,
      "CT": 3324,
      "mm": 3325,
      "ograph": 3326,
      "ething": 3327,
      "kn": 3328,
      "Ġelected": 3329,
      "Ġsle": 3330,
      "like": 3331,
      "Ġlove": 3332,
      "gram": 3333,
      "ĠCalifornia": 3334,
      "Ġattem": 3335,
      "Ġoffered": 3336,
      "23": 3337,
      "AIN": 3338,
      "Ġmount": 3339,
      "auf": 3340,
      "ona": 3341,
      "ente": 3342,
      "Ġwon": 3343,
      "umber": 3344,
      "Ġpresented": 3345,
      "Ġstructure": 3346,
      "west": 3347,
      "Ġmean": 3348,
      "Ġstory": 3349,
      "ĠNove": 3350,
      "Ġconvention": 3351,
      "Ġsometimes": 3352,
      "Ġwird": 3353,
      "Ġhar": 3354,
      "Ġcovered": 3355,
      "ĠBritish": 3356,
      "mond": 3357,
      "ĠAM": 3358,
      "ĠPat": 3359,
      "ĠRed": 3360,
      "igt": 3361,
      "aker": 3362,
      "Ġminutes": 3363,
      "ĠJoseph": 3364,
      "Ġtable": 3365,
      "14": 3366,
      "Ġwalk": 3367,
      "Ġlive": 3368,
      "ili": 3369,
      "ITY": 3370,
      "ppe": 3371,
      "ĠÃ¤": 3372,
      "Ġrub": 3373,
      "ĠLo": 3374,
      "Ġannual": 3375,
      "ques": 3376,
      "Ġexec": 3377,
      "Ġexpected": 3378,
      "Ġquant": 3379,
      "ique": 3380,
      "osing": 3381,
      "Ġremain": 3382,
      "minist": 3383,
      "Ġequal": 3384,
      "where": 3385,
      "ĠGod": 3386,
      "Ġdistance": 3387,
      "Ġdistrib": 3388,
      "Ġdiscuss": 3389,
      "Ġere": 3390,
      "ĠSS": 3391,
      "liche": 3392,
      "Ġpublished": 3393,
      "ĠPacific": 3394,
      "ruction": 3395,
      "cb": 3396,
      "Ġves": 3397,
      "ishing": 3398,
      "uable": 3399,
      "ĠHam": 3400,
      "Ġstren": 3401,
      "Ġly": 3402,
      "ads": 3403,
      "aux": 3404,
      "reme": 3405,
      "essor": 3406,
      "Ġcorre": 3407,
      "Ġthroughout": 3408,
      "Clock": 3409,
      "can": 3410,
      "Ġbit": 3411,
      "ĠWAS": 3412,
      "Ġfight": 3413,
      "ĠId": 3414,
      "ĠPRO": 3415,
      "ĠIts": 3416,
      "ĠMark": 3417,
      "ĠVa": 3418,
      "Ġrecent": 3419,
      "Ġexcell": 3420,
      "Ġupper": 3421,
      "utions": 3422,
      "ĠColumb": 3423,
      "IF": 3424,
      "ournal": 3425,
      "Ġgran": 3426,
      "Ġterm": 3427,
      "fol": 3428,
      "haps": 3429,
      "band": 3430,
      "Ġpros": 3431,
      "ĠSenator": 3432,
      "Ġsilver": 3433,
      "Ġarea": 3434,
      "Ġpra": 3435,
      "ĠCentral": 3436,
      "Ġpure": 3437,
      "ument": 3438,
      "Ġprocess": 3439,
      "rent": 3440,
      "Ġfel": 3441,
      "Ġinfl": 3442,
      "Ġtrip": 3443,
      "Ġbal": 3444,
      "ĠMad": 3445,
      "oming": 3446,
      "LY": 3447,
      "Ġreached": 3448,
      "ĠSept": 3449,
      "ĠAdd": 3450,
      "Ġmerben": 3451,
      "net": 3452,
      "ara": 3453,
      "Ġaccording": 3454,
      "Ġword": 3455,
      "Ġdru": 3456,
      "ima": 3457,
      "arp": 3458,
      "ĠBa": 3459,
      "ĠLaw": 3460,
      "Ġneigh": 3461,
      "Ã¨re": 3462,
      "Ġcra": 3463,
      "ĠSie": 3464,
      "Ġobject": 3465,
      "Ġcitizens": 3466,
      "Ġcy": 3467,
      "umen": 3468,
      "Ġappointed": 3469,
      "ĠEll": 3470,
      "ĠMil": 3471,
      "Ġod": 3472,
      "ici": 3473,
      "ĠCont": 3474,
      "ĠPenns": 3475,
      "ĠPet": 3476,
      "tes": 3477,
      "Ġgame": 3478,
      "Ġconsist": 3479,
      "Ġincrease": 3480,
      "sts": 3481,
      "ĠBalt": 3482,
      "aper": 3483,
      "Ġquality": 3484,
      "ingu": 3485,
      "Ġrequired": 3486,
      "Ġaw": 3487,
      "hest": 3488,
      "imate": 3489,
      "ĠDecember": 3490,
      "ĠSU": 3491,
      "Ã¶n": 3492,
      "Ġforms": 3493,
      "kins": 3494,
      "Ġcolour": 3495,
      "ĠGovernor": 3496,
      "imore": 3497,
      "ĠNow": 3498,
      "Ġdepartment": 3499,
      "ex": 3500,
      "Ġquick": 3501,
      "Ġrates": 3502,
      "ĠFort": 3503,
      "uÃŁ": 3504,
      "ĠCons": 3505,
      "Ġdece": 3506,
      "Ġshows": 3507,
      "Ġflo": 3508,
      "ĠDel": 3509,
      "ffen": 3510,
      "Ġspir": 3511,
      "Ġseeds": 3512,
      "vania": 3513,
      "ĠNovember": 3514,
      "SE": 3515,
      "erve": 3516,
      "Ġell": 3517,
      "Ġhair": 3518,
      "HN": 3519,
      "ators": 3520,
      "Ġcontrol": 3521,
      "21": 3522,
      "Ġich": 3523,
      "ĠMich": 3524,
      "ĠKansas": 3525,
      "ensis": 3526,
      "Ġseries": 3527,
      "Ġrooms": 3528,
      "Ġentirely": 3529,
      "ĠEle": 3530,
      "Ġformed": 3531,
      "Ġduty": 3532,
      "Ġprevent": 3533,
      "Ġbroad": 3534,
      "port": 3535,
      "oted": 3536,
      "ĠFre": 3537,
      "ĠVol": 3538,
      "Ġappears": 3539,
      "Ġsupply": 3540,
      "ĠÃ©tuis": 3541,
      "ike": 3542,
      "Ġelse": 3543,
      "orney": 3544,
      "Ġpack": 3545,
      "ĠBaum": 3546,
      "ĠWal": 3547,
      "ĠEvery": 3548,
      "Ġgives": 3549,
      "Ġtou": 3550,
      "arl": 3551,
      "ĠIr": 3552,
      "Ġshot": 3553,
      "mal": 3554,
      "Ġpounds": 3555,
      "aria": 3556,
      "ead": 3557,
      "ĠSher": 3558,
      "Ġcontinued": 3559,
      "ting": 3560,
      "Ġsession": 3561,
      "Ġitself": 3562,
      "tn": 3563,
      "ĠLet": 3564,
      "Ġmas": 3565,
      "ĠMess": 3566,
      "see": 3567,
      "Ġju": 3568,
      "ĠWar": 3569,
      "Ã¤rt": 3570,
      "Ġdecla": 3571,
      "PH": 3572,
      "Ġburn": 3573,
      "Ġinse": 3574,
      "Ġtalk": 3575,
      "orph": 3576,
      "ĠPR": 3577,
      "Ġofficial": 3578,
      "Ġ....": 3579,
      "Ġwhy": 3580,
      "ĠJe": 3581,
      "Ġgone": 3582,
      "Ġorigin": 3583,
      "Ġterms": 3584,
      "Ġmention": 3585,
      "atory": 3586,
      "ĠSil": 3587,
      "ĠBes": 3588,
      "oa": 3589,
      "itution": 3590,
      "Ġpopular": 3591,
      "Ġthousand": 3592,
      "ĠEin": 3593,
      "Ġpapers": 3594,
      "Ġfuture": 3595,
      "DAY": 3596,
      "Ġtrade": 3597,
      "ĠDepartment": 3598,
      "ĠÃ¶": 3599,
      "Ġble": 3600,
      "Ġprem": 3601,
      "bi": 3602,
      "Ġnous": 3603,
      "ĠAust": 3604,
      "Ġ+.": 3605,
      "Ġacross": 3606,
      "cu": 3607,
      "orrow": 3608,
      "ĠJO": 3609,
      "Ġanything": 3610,
      "Ġgiving": 3611,
      "Ġopened": 3612,
      "sl": 3613,
      "tf": 3614,
      "alo": 3615,
      "Ġ46": 3616,
      "Ġsend": 3617,
      "Ġdang": 3618,
      "ĠTru": 3619,
      "ĠObft": 3620,
      "Ġgirl": 3621,
      "Ġmur": 3622,
      "icine": 3623,
      "olis": 3624,
      "ahl": 3625,
      "Ġkinds": 3626,
      "Ġtail": 3627,
      "Ġna": 3628,
      "ĠOld": 3629,
      "Ġparties": 3630,
      "bild": 3631,
      "dom": 3632,
      "ole": 3633,
      "Ġfra": 3634,
      "ĠIi": 3635,
      "ola": 3636,
      "ĠTho": 3637,
      "Ġbelong": 3638,
      "Ġintrodu": 3639,
      "Ġappearance": 3640,
      "Ġkne": 3641,
      "Ġperform": 3642,
      "ĠAZ": 3643,
      "ĠâĢľ": 3644,
      "Ġpeu": 3645,
      "Ġdors": 3646,
      "Ġblue": 3647,
      "Ġbrother": 3648,
      "nis": 3649,
      "Ġnar": 3650,
      "Ġacqu": 3651,
      "Ġdetermin": 3652,
      "Ġbord": 3653,
      "Ġanal": 3654,
      "Ġsomething": 3655,
      "ĠPennsyl": 3656,
      "za": 3657,
      "Ġfollowed": 3658,
      "ging": 3659,
      "Ġbright": 3660,
      "Ġfresh": 3661,
      "Ġnames": 3662,
      "Ġgle": 3663,
      "...": 3664,
      "ĠLand": 3665,
      "Ġearth": 3666,
      "oi": 3667,
      "anted": 3668,
      "Ġ~.": 3669,
      "Ġlots": 3670,
      "Ġhorses": 3671,
      "ollen": 3672,
      "Ġcrowd": 3673,
      "Ġproceed": 3674,
      "Ġresults": 3675,
      "lon": 3676,
      "oty": 3677,
      "Ġ39": 3678,
      "Ġdoing": 3679,
      "Ġopinion": 3680,
      "inent": 3681,
      "ĠSH": 3682,
      "ĠTexas": 3683,
      "An": 3684,
      "tel": 3685,
      "cken": 3686,
      "ĠVor": 3687,
      "eder": 3688,
      "ORK": 3689,
      "ember": 3690,
      "Ġapplic": 3691,
      "Ġwords": 3692,
      "Ġcompl": 3693,
      "Ġid": 3694,
      "Ġarmy": 3695,
      "Ġsty": 3696,
      "Ġri": 3697,
      "Ġsud": 3698,
      "Ġ34": 3699,
      "17": 3700,
      "ĠDemocratic": 3701,
      "Ġbegan": 3702,
      "Ġdeleg": 3703,
      "Ġconcern": 3704,
      "Il": 3705,
      "Ġhonor": 3706,
      "ially": 3707,
      "ĠĠĠĠĠĠ": 3708,
      "ogen": 3709,
      "field": 3710,
      "ta": 3711,
      "Ġfert": 3712,
      "Ġstre": 3713,
      "Ġgrowing": 3714,
      "Ġtrial": 3715,
      "mÃ¤": 3716,
      "sa": 3717,
      "Ġwonder": 3718,
      "ĠFR": 3719,
      "Ġcolle": 3720,
      "Ġhigher": 3721,
      "nder": 3722,
      "Ġran": 3723,
      "Ġabund": 3724,
      "Ġgef": 3725,
      "Ġcapital": 3726,
      "Ġtrouble": 3727,
      "Ġexpect": 3728,
      "Ġspent": 3729,
      "Ġcoast": 3730,
      "Ġobtained": 3731,
      "Ġces": 3732,
      "ĠBu": 3733,
      "Ġdecl": 3734,
      "Ġenter": 3735,
      "13": 3736,
      "Ġdress": 3737,
      "ĠLarge": 3738,
      "Fig": 3739,
      "Ġident": 3740,
      "Ġrecomm": 3741,
      "Ġcorrespond": 3742,
      "Ġur": 3743,
      "Ġmere": 3744,
      "Ġlonger": 3745,
      "Ġpret": 3746,
      "Ġweak": 3747,
      "itch": 3748,
      "ĠWater": 3749,
      "dr": 3750,
      "asc": 3751,
      "Ġcomes": 3752,
      "Ġclosed": 3753,
      "Ġquiet": 3754,
      "Ġrare": 3755,
      "etting": 3756,
      "what": 3757,
      "ĠHav": 3758,
      "Ġrou": 3759,
      "Ġthence": 3760,
      "Ġtype": 3761,
      "Ġsand": 3762,
      "ĠDan": 3763,
      "ĠFebru": 3764,
      "Ġmethod": 3765,
      "Ġ5000": 3766,
      "Ġmarked": 3767,
      "ĠCommittee": 3768,
      "Ġcust": 3769,
      "Es": 3770,
      "Ġ1000": 3771,
      "OG": 3772,
      "Ġfund": 3773,
      "ische": 3774,
      "ivity": 3775,
      "Ġfein": 3776,
      "Ġresidence": 3777,
      "Ġmail": 3778,
      "ades": 3779,
      "ĠNO": 3780,
      "ĠFour": 3781,
      "Ġconv": 3782,
      "Ġmanufact": 3783,
      "Ġusual": 3784,
      "Ġstatement": 3785,
      "Ġdestro": 3786,
      "itary": 3787,
      "aries": 3788,
      "Ã©rie": 3789,
      "ray": 3790,
      "head": 3791,
      "ĠIV": 3792,
      "Ġarticle": 3793,
      "Ġ75": 3794,
      "Ġexcellent": 3795,
      "Ġfd": 3796,
      "stell": 3797,
      "ĠSouthern": 3798,
      "ĠTheir": 3799,
      "Ġ800": 3800,
      "27": 3801,
      "Ġrend": 3802,
      "Ġ38": 3803,
      "iant": 3804,
      "ĠGro": 3805,
      "ĠLy": 3806,
      "Ġ37": 3807,
      "ĠCorn": 3808,
      "ti": 3809,
      "Ġsens": 3810,
      "ĠBaltimore": 3811,
      "ĠMany": 3812,
      "ĠWestern": 3813,
      "ita": 3814,
      "ĠUS": 3815,
      "Ġwitness": 3816,
      "Ġhouses": 3817,
      "apan": 3818,
      "Se": 3819,
      "mediately": 3820,
      "Ġaverage": 3821,
      "Ġspl": 3822,
      "ĠHarris": 3823,
      "Ġeye": 3824,
      "iti": 3825,
      "Ġlos": 3826,
      "Ġhier": 3827,
      "Ġproduced": 3828,
      "Ġmom": 3829,
      "ify": 3830,
      "Ġmehr": 3831,
      "ĠCarolina": 3832,
      "inity": 3833,
      "Ġvan": 3834,
      "iana": 3835,
      "Ġflower": 3836,
      "ĠRobert": 3837,
      "Ġgar": 3838,
      "ĠBull": 3839,
      "ĠInc": 3840,
      "Ġreceive": 3841,
      "ĠSP": 3842,
      "ĠBel": 3843,
      "ueur": 3844,
      "Ġtons": 3845,
      "ĠBR": 3846,
      "ĠPL": 3847,
      "ĠWor": 3848,
      "ĠFrancisco": 3849,
      "side": 3850,
      "Ġiron": 3851,
      "Ġthorough": 3852,
      "hood": 3853,
      "Ã©c": 3854,
      "Ġordered": 3855,
      "ĠPennsylvania": 3856,
      "Ġfle": 3857,
      "Ġisland": 3858,
      "Ġrunning": 3859,
      "ĠMexico": 3860,
      "aten": 3861,
      "unst": 3862,
      "ĠKn": 3863,
      "INE": 3864,
      "Ġvaluable": 3865,
      "Ġquarter": 3866,
      "29": 3867,
      "Ġattack": 3868,
      "Ġcompan": 3869,
      "ival": 3870,
      "Ġdepos": 3871,
      "Ġmi": 3872,
      "ĠTown": 3873,
      "Ġalone": 3874,
      "Ġshell": 3875,
      "Ġrecogn": 3876,
      "Ãªte": 3877,
      "Ġbod": 3878,
      "aped": 3879,
      "Ġscar": 3880,
      "Ġnational": 3881,
      "oles": 3882,
      "Ġms": 3883,
      "lage": 3884,
      "ĠAfrica": 3885,
      "Ġdent": 3886,
      "Ġdiam": 3887,
      "ĠSci": 3888,
      "ALL": 3889,
      "flan": 3890,
      "Ġness": 3891,
      "ĠCL": 3892,
      "acy": 3893,
      "Ġstation": 3894,
      "Ġpair": 3895,
      "ena": 3896,
      "Ġbull": 3897,
      "Ġhall": 3898,
      "ĠLeg": 3899,
      "Ġaid": 3900,
      "Ġprepared": 3901,
      "âĻ¦âĻ¦": 3902,
      "Ġcars": 3903,
      "oul": 3904,
      "ĠCoun": 3905,
      "uses": 3906,
      "Ġboys": 3907,
      "BER": 3908,
      "eu": 3909,
      "Ġgroup": 3910,
      "mo": 3911,
      "Ġess": 3912,
      "ĠJer": 3913,
      "Ã¤ume": 3914,
      "Ġbecame": 3915,
      "ĠClark": 3916,
      "Ġstudy": 3917,
      "Ġdevelopment": 3918,
      "Ġinte": 3919,
      "60": 3920,
      "Ġoz": 3921,
      "ding": 3922,
      "Ġsafe": 3923,
      "nl": 3924,
      "vis": 3925,
      "ĠBay": 3926,
      "chan": 3927,
      "ĠlÃ¤ng": 3928,
      "Ġren": 3929,
      "ĠWhile": 3930,
      "ĠPrice": 3931,
      "Ġconsiderable": 3932,
      "Ġimprove": 3933,
      ",-": 3934,
      "Ġchair": 3935,
      "annt": 3936,
      "ĠSi": 3937,
      "ĠSir": 3938,
      "Ġot": 3939,
      "Ġwarm": 3940,
      "Ġ1890": 3941,
      "80": 3942,
      "Ġtit": 3943,
      "elve": 3944,
      "Ã©t": 3945,
      "mann": 3946,
      "ample": 3947,
      "ctive": 3948,
      "ights": 3949,
      "Ġlargest": 3950,
      "Ġcured": 3951,
      "Ġquart": 3952,
      ");": 3953,
      "Ġbird": 3954,
      "aught": 3955,
      ".:": 3956,
      "eln": 3957,
      "Ġcultiv": 3958,
      "pic": 3959,
      "Ġcells": 3960,
      "bet": 3961,
      "Ġraised": 3962,
      "Ġmax": 3963,
      "Ġwid": 3964,
      "Ġenj": 3965,
      "Ġpolice": 3966,
      "Ġtried": 3967,
      "Ġsides": 3968,
      "Ġblo": 3969,
      "Ġcattle": 3970,
      "Ġaccomp": 3971,
      "ĠTreas": 3972,
      "Ġhabit": 3973,
      "Ġprepar": 3974,
      "ode": 3975,
      "ritory": 3976,
      "yr": 3977,
      "adt": 3978,
      "Ġze": 3979,
      "Ġcover": 3980,
      "Ġarticles": 3981,
      "Ġtar": 3982,
      "Ġcotton": 3983,
      "Ġobl": 3984,
      "ishes": 3985,
      "Ġni": 3986,
      "Ġwheat": 3987,
      "Ġstarted": 3988,
      "cting": 3989,
      "Ġja": 3990,
      "rey": 3991,
      "owa": 3992,
      "ĠEm": 3993,
      "Ġdirection": 3994,
      "Ġarrange": 3995,
      "\"'": 3996,
      "Ġls": 3997,
      "ĠDru": 3998,
      "Ġsuc": 3999,
      "Ġaged": 4000,
      "Ġprint": 4001,
      "Ġoriginal": 4002,
      "Ġdass": 4003,
      "âĢ¢": 4004,
      "Ġladies": 4005,
      "ibr": 4006,
      "Ġtransp": 4007,
      "Ġlady": 4008,
      "Ġ\".": 4009,
      "Ġprim": 4010,
      "Ġvisiting": 4011,
      "Ġissued": 4012,
      "ĠPart": 4013,
      "Ġru": 4014,
      "ĠEnd": 4015,
      "itting": 4016,
      "Ġentertain": 4017,
      "ĠSd": 4018,
      "app": 4019,
      "ĠFred": 4020,
      "ĠFore": 4021,
      "iben": 4022,
      "Ġdozen": 4023,
      "Ġavec": 4024,
      "arly": 4025,
      "ĠTR": 4026,
      "Ġges": 4027,
      "âĢĿ": 4028,
      "Ġ-,": 4029,
      "Ġobserved": 4030,
      "Ġtas": 4031,
      "Ġnative": 4032,
      "Ġliber": 4033,
      "Ġspecimen": 4034,
      "Ġforty": 4035,
      "beit": 4036,
      "een": 4037,
      "ĠMA": 4038,
      "abit": 4039,
      "mn": 4040,
      "Ġbound": 4041,
      "ĠMit": 4042,
      "Ġhear": 4043,
      "Ġnumerous": 4044,
      "astern": 4045,
      "Ġvic": 4046,
      "Ġmile": 4047,
      "igation": 4048,
      "angen": 4049,
      "ĠOR": 4050,
      "Ġserved": 4051,
      "mar": 4052,
      "Ġtt": 4053,
      "Ġmie": 4054,
      "ĠFlor": 4055,
      "igne": 4056,
      "Ġservices": 4057,
      "Ġlaws": 4058,
      "Ġsquare": 4059,
      "Ġnat": 4060,
      "uge": 4061,
      "Ġdro": 4062,
      "ĠJones": 4063,
      "Ġadopted": 4064,
      "ading": 4065,
      "ague": 4066,
      "ught": 4067,
      "\",": 4068,
      "ĠIns": 4069,
      "Ġ43": 4070,
      "Ġfamil": 4071,
      "Ġestablish": 4072,
      "ipts": 4073,
      "over": 4074,
      "Ġfil": 4075,
      "Ã¤h": 4076,
      "Ġbuy": 4077,
      "ĠGovernment": 4078,
      "bes": 4079,
      "ĠHand": 4080,
      "riage": 4081,
      "Ġprove": 4082,
      "Ġadvert": 4083,
      "Ġarc": 4084,
      "mas": 4085,
      "Ġextens": 4086,
      "rel": 4087,
      "ĠWH": 4088,
      "Ġprison": 4089,
      "ox": 4090,
      "Ġfro": 4091,
      "ĠAlex": 4092,
      "idj": 4093,
      "ria": 4094,
      "Ġbear": 4095,
      "odge": 4096,
      "Ġperhaps": 4097,
      "FF": 4098,
      "Ġtrust": 4099,
      "Ġorders": 4100,
      "Ġlas": 4101,
      "Ġic": 4102,
      "Ġti": 4103,
      "Ġsouthern": 4104,
      "Ġlit": 4105,
      "Ġprompt": 4106,
      "Ġhistory": 4107,
      "ĠTenn": 4108,
      "ĠFebruary": 4109,
      "Ã´": 4110,
      "ĠTran": 4111,
      "ulf": 4112,
      "uli": 4113,
      "Ġconsidered": 4114,
      "Ġdouble": 4115,
      "mitted": 4116,
      "onn": 4117,
      "aded": 4118,
      "?\"": 4119,
      "hold": 4120,
      "Ġled": 4121,
      "Ġinfe": 4122,
      "ĠMAR": 4123,
      "estic": 4124,
      "hel": 4125,
      "Ġsomewhat": 4126,
      "ped": 4127,
      "alis": 4128,
      "ĠBor": 4129,
      "ĠForm": 4130,
      "Ġcorce": 4131,
      "Ġsteady": 4132,
      "Ġself": 4133,
      "Ġmajority": 4134,
      "Ar": 4135,
      "Ġnine": 4136,
      "eed": 4137,
      "ĠNOT": 4138,
      "Ġsto": 4139,
      "ĠBra": 4140,
      "==": 4141,
      "ĠCr": 4142,
      "ifen": 4143,
      "Ġdesign": 4144,
      "Ġtreas": 4145,
      "Ġ=.": 4146,
      "Ġsion": 4147,
      "ĠLew": 4148,
      "ĠCollege": 4149,
      "Ġoh": 4150,
      "Ġfrag": 4151,
      "55": 4152,
      "77": 4153,
      "orter": 4154,
      "Ġpict": 4155,
      "Ġalt": 4156,
      "Ġdistingu": 4157,
      "Ġnewsp": 4158,
      "Ġadvance": 4159,
      "ĠdaÃŁ": 4160,
      "Ġsweet": 4161,
      "Ġgrown": 4162,
      "Ġillust": 4163,
      "OP": 4164,
      "ker": 4165,
      "Ġsick": 4166,
      "itude": 4167,
      "ĠMart": 4168,
      "islature": 4169,
      "ĠRem": 4170,
      "Ġagre": 4171,
      "Ġsecure": 4172,
      "Ġpolic": 4173,
      "ĠSecond": 4174,
      "Ġclean": 4175,
      "ĠSuper": 4176,
      "ĠYoung": 4177,
      "ming": 4178,
      "itors": 4179,
      "ffe": 4180,
      "ĠRailroad": 4181,
      "rence": 4182,
      "ĠSoc": 4183,
      "Ġetw": 4184,
      "Ġcaud": 4185,
      "Ġinteresting": 4186,
      "ency": 4187,
      "Ġmel": 4188,
      "vell": 4189,
      "Ġones": 4190,
      "Ġunless": 4191,
      "ropri": 4192,
      "Ġmoved": 4193,
      "Ġincluding": 4194,
      "lar": 4195,
      "Ġshape": 4196,
      "Ġeffects": 4197,
      "Ġdiseases": 4198,
      "Ġattempt": 4199,
      "Ġplain": 4200,
      "othing": 4201,
      "OOD": 4202,
      "Ġclaims": 4203,
      "gra": 4204,
      "ferred": 4205,
      "Ġprovided": 4206,
      "KS": 4207,
      "ĠMet": 4208,
      "Ġrot": 4209,
      "Ġsurr": 4210,
      "Ġoi": 4211,
      "Ġange": 4212,
      "Ġyards": 4213,
      "Ġcoal": 4214,
      "Ġregion": 4215,
      "Ġfurnished": 4216,
      "RY": 4217,
      "pi": 4218,
      "ories": 4219,
      "Ġdepart": 4220,
      "Ġrespons": 4221,
      "ĠGar": 4222,
      "pping": 4223,
      "aled": 4224,
      "cious": 4225,
      "Ġfran": 4226,
      "Ġsup": 4227,
      "Ġearn": 4228,
      "Ġactive": 4229,
      "Ġremoved": 4230,
      "king": 4231,
      "oid": 4232,
      "vest": 4233,
      "Ã®": 4234,
      "rei": 4235,
      "ĠFair": 4236,
      "Ġchanges": 4237,
      "uft": 4238,
      "Ġlic": 4239,
      "ĠCam": 4240,
      "ĠPA": 4241,
      "reek": 4242,
      "ormal": 4243,
      "Ġlooked": 4244,
      "Ġhighest": 4245,
      "mt": 4246,
      "wer": 4247,
      "Ġbot": 4248,
      "Ġwestern": 4249,
      "leans": 4250,
      "Ġforward": 4251,
      "ĠEN": 4252,
      "ĠDavis": 4253,
      "ospital": 4254,
      "BL": 4255,
      "Ġtions": 4256,
      "ouri": 4257,
      "ĠSALE": 4258,
      "ĠRuss": 4259,
      "ĠJah": 4260,
      "abel": 4261,
      "ciated": 4262,
      "Ġentered": 4263,
      "Ġbid": 4264,
      "ĠWilson": 4265,
      "ny": 4266,
      "Ġsche": 4267,
      "aters": 4268,
      "olly": 4269,
      "Ġcompar": 4270,
      "ĠAtlant": 4271,
      "Ġreports": 4272,
      "zy": 4273,
      "Ġnie": 4274,
      "idae": 4275,
      "Ġshowing": 4276,
      "Ġbun": 4277,
      "Ġpain": 4278,
      "Ġlbs": 4279,
      "Ġgenus": 4280,
      "Ġengine": 4281,
      "Ġbranches": 4282,
      "oh": 4283,
      "Ġsat": 4284,
      "emy": 4285,
      "ĠUN": 4286,
      "Ġ........": 4287,
      "Ġprivate": 4288,
      "Ġgan": 4289,
      "Ġcomplet": 4290,
      "Ġappeared": 4291,
      "Ġ55": 4292,
      "Ġcommand": 4293,
      "Ġleading": 4294,
      "Ġhusband": 4295,
      "och": 4296,
      "Ġmal": 4297,
      "ĠSim": 4298,
      "ĠPress": 4299,
      "Ġmort": 4300,
      "known": 4301,
      "EY": 4302,
      "itud": 4303,
      "Ġrepe": 4304,
      "ĠPH": 4305,
      "ledge": 4306,
      "cape": 4307,
      "Ġincreased": 4308,
      "Ġbehind": 4309,
      "Ġpolitical": 4310,
      "Ġdeceased": 4311,
      "aches": 4312,
      "vor": 4313,
      "ĠSk": 4314,
      "Ġstep": 4315,
      "ability": 4316,
      "ivil": 4317,
      "ĠVIM": 4318,
      "Ġfifty": 4319,
      "iÃŁ": 4320,
      "igor": 4321,
      "Ġgreatest": 4322,
      "'''": 4323,
      "To": 4324,
      "Ġweight": 4325,
      "Ġguar": 4326,
      "Ġenjoy": 4327,
      "bel": 4328,
      "omer": 4329,
      "43": 4330,
      "Ġmouth": 4331,
      "unity": 4332,
      "Ġroots": 4333,
      "Ġeasily": 4334,
      "oen": 4335,
      "ĠCap": 4336,
      "agen": 4337,
      "Ġtwelve": 4338,
      "lebr": 4339,
      "useum": 4340,
      "Ġslightly": 4341,
      "Ġwish": 4342,
      "ĠAuf": 4343,
      "ĠWell": 4344,
      "Ġsehr": 4345,
      "Ã¤hr": 4346,
      "Ġrose": 4347,
      "ĠMount": 4348,
      "ĠÂ®": 4349,
      "ricult": 4350,
      "Ġseemed": 4351,
      "yond": 4352,
      "Ġmd": 4353,
      "Ġbroken": 4354,
      "Ġadded": 4355,
      "si": 4356,
      "Ġward": 4357,
      "athe": 4358,
      "ĠAR": 4359,
      "ĠWas": 4360,
      "ĠAlso": 4361,
      "Ġhaben": 4362,
      "Ġdifficult": 4363,
      "Ġnarrow": 4364,
      "gart": 4365,
      "inner": 4366,
      "Ġworking": 4367,
      "war": 4368,
      "rot": 4369,
      "ĠWork": 4370,
      "ibt": 4371,
      "ĠRec": 4372,
      "Ġtermin": 4373,
      "lder": 4374,
      "Ã¶nn": 4375,
      "gth": 4376,
      "las": 4377,
      "uten": 4378,
      "ification": 4379,
      "Ġforeign": 4380,
      "Ġmiddle": 4381,
      "aly": 4382,
      "Ġcorps": 4383,
      "Ġesc": 4384,
      "ĠOther": 4385,
      "ĠLE": 4386,
      "Ġadvant": 4387,
      "Ġproduce": 4388,
      "itation": 4389,
      "change": 4390,
      "tered": 4391,
      "illa": 4392,
      "Ġvict": 4393,
      "Ġpan": 4394,
      "ĠSon": 4395,
      "omach": 4396,
      "illing": 4397,
      "Ġinflu": 4398,
      "Ġwur": 4399,
      "orf": 4400,
      "ĠFrance": 4401,
      "pf": 4402,
      "ĠIowa": 4403,
      "veland": 4404,
      "ĠBrook": 4405,
      "phy": 4406,
      "Ġpresence": 4407,
      "Ġextent": 4408,
      "Ġresolution": 4409,
      "mes": 4410,
      "rum": 4411,
      "Ġcontaining": 4412,
      "Ġ}": 4413,
      "hend": 4414,
      "Ġtoward": 4415,
      "ols": 4416,
      "Ġyield": 4417,
      "Ġrain": 4418,
      "ĠSenate": 4419,
      "gn": 4420,
      "iiii": 4421,
      "Ġspee": 4422,
      "Ġmotion": 4423,
      "ĠHy": 4424,
      "Ġchoice": 4425,
      "Ġremedy": 4426,
      "anks": 4427,
      "Ġeggs": 4428,
      "VER": 4429,
      "lung": 4430,
      "Ġviol": 4431,
      "aupt": 4432,
      "Ġsufficient": 4433,
      "HT": 4434,
      "Ġsour": 4435,
      "Ġdeb": 4436,
      "Ġlooking": 4437,
      "Ġhuman": 4438,
      "body": 4439,
      "pon": 4440,
      "Ġvessel": 4441,
      "OD": 4442,
      "bon": 4443,
      "Ġbab": 4444,
      "igs": 4445,
      "ĠHot": 4446,
      "Ġ~,": 4447,
      "ĠSee": 4448,
      "Ġslow": 4449,
      "mediate": 4450,
      "zz": 4451,
      "Ġprogress": 4452,
      "Ġleur": 4453,
      "Ġarg": 4454,
      "ĠRichmond": 4455,
      "ĠYOU": 4456,
      "Ġanswer": 4457,
      "sen": 4458,
      "Ġstage": 4459,
      "Ġcopy": 4460,
      "ov": 4461,
      "ĠBuff": 4462,
      "iments": 4463,
      "Ġplum": 4464,
      "33": 4465,
      "erb": 4466,
      "ĠSum": 4467,
      "Ġaug": 4468,
      "erf": 4469,
      "ching": 4470,
      "Ġpecul": 4471,
      "Ġbeginning": 4472,
      "Ġpretty": 4473,
      "lr": 4474,
      "ĠBas": 4475,
      "ĠFar": 4476,
      "Ġpeace": 4477,
      "len": 4478,
      "Ġbonds": 4479,
      "ours": 4480,
      "ĠOrleans": 4481,
      "Ġsort": 4482,
      "Ġfish": 4483,
      "Ġprincipal": 4484,
      "atures": 4485,
      "Ġcorcelet": 4486,
      "Ġtin": 4487,
      "istic": 4488,
      "Ġusing": 4489,
      "Ġordinary": 4490,
      "nal": 4491,
      "wo": 4492,
      "ĠChap": 4493,
      "Ġopport": 4494,
      "Ġsecretary": 4495,
      "AIL": 4496,
      "ply": 4497,
      "wick": 4498,
      "ĠSant": 4499,
      "Ġ44": 4500,
      "Ġgrass": 4501,
      "ĠSÃ¶": 4502,
      "Ġmeasure": 4503,
      "aI": 4504,
      "Ġgew": 4505,
      "urance": 4506,
      "Ġ1900": 4507,
      "Ġgreatly": 4508,
      "Ġallowed": 4509,
      "28": 4510,
      "cies": 4511,
      "sy": 4512,
      "Ġcast": 4513,
      "ĠWall": 4514,
      "Ã©g": 4515,
      "feit": 4516,
      "isch": 4517,
      "ĠTom": 4518,
      "ĠTIE": 4519,
      "Ġfaith": 4520,
      "Ġ:.": 4521,
      "Ġcontinue": 4522,
      "Ch": 4523,
      "Ġsound": 4524,
      "asing": 4525,
      "lement": 4526,
      "Ġ196": 4527,
      "atz": 4528,
      "ĠBre": 4529,
      "ĠEst": 4530,
      "estion": 4531,
      ".--": 4532,
      "ĠGeo": 4533,
      "Ġeasy": 4534,
      "IP": 4535,
      "IES": 4536,
      "Ġped": 4537,
      "Ġmad": 4538,
      "ĠInstit": 4539,
      "orten": 4540,
      "enses": 4541,
      "Ġexperience": 4542,
      "Ġmusic": 4543,
      "Ġmaint": 4544,
      "ĠMars": 4545,
      "ĠDuring": 4546,
      "ĠDbft": 4547,
      "ĠCT": 4548,
      "Ġjun": 4549,
      "ously": 4550,
      "Ġsurpr": 4551,
      "ĠCall": 4552,
      "Ġneck": 4553,
      "apolis": 4554,
      "Ġidea": 4555,
      "Ġbeds": 4556,
      "Ġcette": 4557,
      "Ġgall": 4558,
      "Ġsevere": 4559,
      "OND": 4560,
      "ĠPlant": 4561,
      "Ġbeyond": 4562,
      "ĠMinn": 4563,
      "ĠtrÃ¨s": 4564,
      "Ġleaving": 4565,
      "Ġpeculiar": 4566,
      "isk": 4567,
      "Ġ100000": 4568,
      "Ġnone": 4569,
      "ĠDay": 4570,
      "ĠEv": 4571,
      "Ġstrength": 4572,
      "arum": 4573,
      "ĠAcc": 4574,
      "ĠBen": 4575,
      "Ã©d": 4576,
      "lier": 4577,
      "ĠArch": 4578,
      "ĠExp": 4579,
      "iI": 4580,
      "ANS": 4581,
      "Ġpersonal": 4582,
      "ican": 4583,
      "ĠFund": 4584,
      "ĠLinn": 4585,
      "Ġworks": 4586,
      "urb": 4587,
      "Ġstim": 4588,
      "essed": 4589,
      "Ã¤d": 4590,
      "Ġlaid": 4591,
      "Ġcert": 4592,
      "Ġnet": 4593,
      "Ġnod": 4594,
      "ĠGa": 4595,
      "ĠDavid": 4596,
      "Ġmoment": 4597,
      "Ġcab": 4598,
      "Ġrad": 4599,
      "ĠJournal": 4600,
      "Ġrelative": 4601,
      "Ġbelieved": 4602,
      "Ġsales": 4603,
      "umn": 4604,
      "aking": 4605,
      "Ġcharged": 4606,
      "Ġeduc": 4607,
      "Ġreferred": 4608,
      "wise": 4609,
      "\".": 4610,
      "gia": 4611,
      "endant": 4612,
      "Ġappropri": 4613,
      "pa": 4614,
      "uS": 4615,
      "aden": 4616,
      "ĠFer": 4617,
      "ellen": 4618,
      "Ġzum": 4619,
      "Ġcircum": 4620,
      "orb": 4621,
      "ĠmÃª": 4622,
      "Ġformerly": 4623,
      "ĠgrÃ¶": 4624,
      "Ġsecured": 4625,
      "ĠMessrs": 4626,
      "cnt": 4627,
      "idi": 4628,
      "ipal": 4629,
      "eten": 4630,
      "agement": 4631,
      "Ġsuperior": 4632,
      "Ġcandidate": 4633,
      "Ġrule": 4634,
      "Ġyard": 4635,
      "ĠStock": 4636,
      "Ġestim": 4637,
      "Ġfed": 4638,
      "Ġgetting": 4639,
      "Ġsociety": 4640,
      "Ġamend": 4641,
      "ĠAddress": 4642,
      "dy": 4643,
      "Ġbud": 4644,
      "Ġfte": 4645,
      "Ġep": 4646,
      "ĠAD": 4647,
      "Ġunc": 4648,
      "Ġmais": 4649,
      "Ġmarried": 4650,
      "Ġsad": 4651,
      "Ġsla": 4652,
      "Ġfiled": 4653,
      "isher": 4654,
      "Ġrang": 4655,
      "Ġexer": 4656,
      "Ġgegen": 4657,
      "At": 4658,
      "ĠDire": 4659,
      "ĠRob": 4660,
      "ptions": 4661,
      "Ġbottle": 4662,
      "ĠAssociation": 4663,
      "ea": 4664,
      "geb": 4665,
      "Ġengaged": 4666,
      "Ġsteamer": 4667,
      "ĠQue": 4668,
      "iting": 4669,
      "ĠME": 4670,
      "ĠDas": 4671,
      "ĠSol": 4672,
      "Ġnorthern": 4673,
      "Ã¼ck": 4674,
      "Ġdieser": 4675,
      "oria": 4676,
      "ĠSub": 4677,
      "ĠbeS": 4678,
      "ĠDIR": 4679,
      "Ġments": 4680,
      "Ġsleep": 4681,
      "Ġtil": 4682,
      "Ġfat": 4683,
      "Ġglo": 4684,
      "Ġschools": 4685,
      "amber": 4686,
      "Ġextreme": 4687,
      "Ġdifference": 4688,
      "Ġsudden": 4689,
      "'.": 4690,
      "Ġlign": 4691,
      "Ġcryst": 4692,
      "enger": 4693,
      "Ġcm": 4694,
      "Ġfelt": 4695,
      "Ġdig": 4696,
      "Ġmac": 4697,
      "leur": 4698,
      "ĠSpan": 4699,
      "Ġstanding": 4700,
      "utive": 4701,
      "ĠHere": 4702,
      "aval": 4703,
      "Ġcorpor": 4704,
      "ĠlÃ¤nger": 4705,
      "eft": 4706,
      "ini": 4707,
      "ĠMur": 4708,
      "Ġbuilt": 4709,
      "Ġdiese": 4710,
      "Ġlateral": 4711,
      "win": 4712,
      "ĠHel": 4713,
      "una": 4714,
      "Ġwen": 4715,
      "semb": 4716,
      "ĠHE": 4717,
      "Ġconsequ": 4718,
      "Ġsoft": 4719,
      "intendent": 4720,
      "Ġpossib": 4721,
      "Ġpetition": 4722,
      "',": 4723,
      "pus": 4724,
      "ĠMac": 4725,
      "ĠMcC": 4726,
      "ĠLie": 4727,
      "Ġvo": 4728,
      "Ġproved": 4729,
      "oper": 4730,
      "Ġrelief": 4731,
      "Ġknew": 4732,
      "Ġsucceed": 4733,
      "Ġhop": 4734,
      "ĠDu": 4735,
      "ĠSpring": 4736,
      "ĠUnter": 4737,
      "Ġshowed": 4738,
      "Ġevident": 4739,
      "Ġmirb": 4740,
      "ĠEsq": 4741,
      "Ġdiscovered": 4742,
      "cus": 4743,
      "my": 4744,
      "ĠCamp": 4745,
      "lyt": 4746,
      "cco": 4747,
      "Ġhighly": 4748,
      "Ġplat": 4749,
      "Ġfacts": 4750,
      "Ġnegro": 4751,
      "ĠSom": 4752,
      "ĠFL": 4753,
      "Ġdesire": 4754,
      "Ġpick": 4755,
      "Ġnerv": 4756,
      "ctors": 4757,
      "UE": 4758,
      "Ġcru": 4759,
      "Ġny": 4760,
      "Ġeing": 4761,
      "ECT": 4762,
      "ĠProfessor": 4763,
      "atalog": 4764,
      "Ġmine": 4765,
      "ĠRh": 4766,
      "Ġov": 4767,
      "Ġpu": 4768,
      "ĠBet": 4769,
      "ĠValley": 4770,
      "with": 4771,
      "Ġought": 4772,
      "ichen": 4773,
      "Ġglass": 4774,
      "itive": 4775,
      "ĠJapan": 4776,
      "osite": 4777,
      "Ġaccom": 4778,
      "Ġbreit": 4779,
      "Ġbooks": 4780,
      "ali": 4781,
      "ĠFem": 4782,
      "Ġvi": 4783,
      "ĠEp": 4784,
      "ĠSpecial": 4785,
      "ĠâĢĺ": 4786,
      "ÃŁt": 4787,
      "ĠGenus": 4788,
      "ĠHerb": 4789,
      "ev": 4790,
      "Ġcat": 4791,
      "icial": 4792,
      "ĠBry": 4793,
      "Ġsheep": 4794,
      "ĠClub": 4795,
      "ĠCaptain": 4796,
      "kes": 4797,
      "Ġdim": 4798,
      "ĠNV": 4799,
      "Ġacre": 4800,
      "Ġinstead": 4801,
      "ĠColor": 4802,
      "Ġbark": 4803,
      "ĠSix": 4804,
      "Ġspread": 4805,
      "Ġcontr": 4806,
      "Ġproposed": 4807,
      "Ġtreatment": 4808,
      "TY": 4809,
      "Ġban": 4810,
      "ĠLi": 4811,
      "Ġteam": 4812,
      "Ġoccurred": 4813,
      "Ġnews": 4814,
      "Ġwriter": 4815,
      "Ġtill": 4816,
      "Ġlis": 4817,
      "Ġner": 4818,
      "ĠNorthern": 4819,
      "ulated": 4820,
      "ortion": 4821,
      "ĠWilliams": 4822,
      "Ġskin": 4823,
      "Ġissue": 4824,
      "Ġoc": 4825,
      "amorph": 4826,
      "Ġarrested": 4827,
      "alb": 4828,
      "Ġthin": 4829,
      "Ġconven": 4830,
      "Ġcheap": 4831,
      "Ġmurder": 4832,
      "LD": 4833,
      "No": 4834,
      "Ġefp": 4835,
      "Ġattended": 4836,
      "Ġdeveloped": 4837,
      "Ġbales": 4838,
      "Ġinqu": 4839,
      "Ġpurposes": 4840,
      "Ġox": 4841,
      "ĠPass": 4842,
      "Ġsex": 4843,
      "ĠYe": 4844,
      "ĠYORK": 4845,
      "Ġwritten": 4846,
      "Ġos": 4847,
      "Ġpurs": 4848,
      "Ġindu": 4849,
      "ĠObs": 4850,
      "etz": 4851,
      "idents": 4852,
      "Ġlevel": 4853,
      "Ġindividual": 4854,
      "Ġsr": 4855,
      "Ġnun": 4856,
      "Ġheight": 4857,
      "Ġimm": 4858,
      "inois": 4859,
      "Ġrapidly": 4860,
      "vir": 4861,
      "ashion": 4862,
      "IX": 4863,
      "ented": 4864,
      "ĠEdward": 4865,
      "gu": 4866,
      "Ġsugar": 4867,
      "mont": 4868,
      "itic": 4869,
      "ĠCub": 4870,
      "Ġstone": 4871,
      "Ġcelebr": 4872,
      "Ġmentioned": 4873,
      "lan": 4874,
      "ardens": 4875,
      "END": 4876,
      "Ġcertainly": 4877,
      "Ġbenefit": 4878,
      "uo": 4879,
      "ĠSIS": 4880,
      "acht": 4881,
      "Ġliqu": 4882,
      "Ġprominent": 4883,
      "sembl": 4884,
      "gi": 4885,
      "greg": 4886,
      "jen": 4887,
      "pn": 4888,
      "ĠFin": 4889,
      "ĠJr": 4890,
      "Ġmedicine": 4891,
      "osis": 4892,
      "Ġspot": 4893,
      "Ġvisited": 4894,
      "Ġclosely": 4895,
      "ĠefpÃ©": 4896,
      "Ġ65": 4897,
      "Ġlikely": 4898,
      "Ġtomorrow": 4899,
      "ĠSta": 4900,
      "Ġvert": 4901,
      "ANTED": 4902,
      "Ġsight": 4903,
      "Ġpound": 4904,
      "ĠAmong": 4905,
      "Ġinfer": 4906,
      "ĠSun": 4907,
      "Ġoutside": 4908,
      "Ġpoison": 4909,
      "Ġfloor": 4910,
      "zie": 4911,
      "Ġhi": 4912,
      "rap": 4913,
      "Ġboat": 4914,
      "Ġmovement": 4915,
      "Io": 4916,
      "pro": 4917,
      "rus": 4918,
      "vae": 4919,
      "Ġlives": 4920,
      "Ġinn": 4921,
      "olved": 4922,
      "Ġva": 4923,
      "Ġ47": 4924,
      "Ġdegree": 4925,
      "pent": 4926,
      "ĠMuseum": 4927,
      "Ġesp": 4928,
      "ĠBroad": 4929,
      "TE": 4930,
      "Ġmu": 4931,
      "ĠEX": 4932,
      "Ġihr": 4933,
      "Ġ.,": 4934,
      "Ġ/.": 4935,
      "Ġofficer": 4936,
      "ĠAcad": 4937,
      "Ġdetermined": 4938,
      "Ġnnb": 4939,
      "Ġinch": 4940,
      "ĠLin": 4941,
      "lies": 4942,
      "four": 4943,
      "ĠLim": 4944,
      "ĠClerk": 4945,
      "Ġsmaller": 4946,
      "Ġveget": 4947,
      "Ġice": 4948,
      "ression": 4949,
      "Ġteacher": 4950,
      "Be": 4951,
      "right": 4952,
      "ĠPot": 4953,
      "appe": 4954,
      "Ġstood": 4955,
      "Ġ!.": 4956,
      "Ġsein": 4957,
      "ĠBerlin": 4958,
      "bro": 4959,
      "ĠHu": 4960,
      "Ġern": 4961,
      "Ġcharacters": 4962,
      "col": 4963,
      "enced": 4964,
      "ĠBO": 4965,
      "Ġanu": 4966,
      "Ġtruth": 4967,
      "Ġaccept": 4968,
      "Ġtrack": 4969,
      "Ġhs": 4970,
      "ĠLittle": 4971,
      "Ġleaf": 4972,
      "Ġcontrib": 4973,
      "Ġappre": 4974,
      "ĠZe": 4975,
      "inson": 4976,
      "Ġletters": 4977,
      "ĠColumbia": 4978,
      "36": 4979,
      "PT": 4980,
      "jl": 4981,
      "Ġwatch": 4982,
      "Ġdiss": 4983,
      "ĠSab": 4984,
      "Ġforth": 4985,
      "ĠGarden": 4986,
      "90": 4987,
      "Ġtrib": 4988,
      "ĠtÃªte": 4989,
      "Ġcord": 4990,
      "raw": 4991,
      "ifer": 4992,
      "ĠĠĠĠĠĠĠĠĠ": 4993,
      "Ġnoon": 4994,
      "Ġavail": 4995,
      "Ġeastern": 4996,
      "Ġdrink": 4997,
      "ga": 4998,
      "ATUR": 4999,
      "Ġsupposed": 5000,
      "ĠCouncil": 5001,
      "ĠBest": 5002,
      "ĠIllinois": 5003,
      "Ġselection": 5004,
      "Ġdescription": 5005,
      "ĠJackson": 5006,
      "IZ": 5007,
      "Ġhol": 5008,
      "ĠColon": 5009,
      "Ġrequire": 5010,
      "Ġsss": 5011,
      "olute": 5012,
      "Ġsevent": 5013,
      "Ġelev": 5014,
      "Ġinstru": 5015,
      "bury": 5016,
      "Ġnation": 5017,
      "Ġsections": 5018,
      "Ġnote": 5019,
      "iae": 5020,
      "fts": 5021,
      "aces": 5022,
      "Ġcontains": 5023,
      "Ġguarante": 5024,
      "Ġts": 5025,
      "ĠLord": 5026,
      "ĠRichard": 5027,
      "bu": 5028,
      "ĠSr": 5029,
      "Ġrect": 5030,
      "ĠGR": 5031,
      "Ã¤lt": 5032,
      "Ġwanted": 5033,
      "Ġsin": 5034,
      "stra": 5035,
      "ĠUs": 5036,
      "Ġbegin": 5037,
      "Ġphysic": 5038,
      "Ġci": 5039,
      "Ġthro": 5040,
      "ulen": 5041,
      "actory": 5042,
      "stein": 5043,
      "Ġdeclared": 5044,
      "Ġmale": 5045,
      "ĠWin": 5046,
      "Ġheat": 5047,
      "Ġkle": 5048,
      "ugh": 5049,
      "FOR": 5050,
      "ĠBill": 5051,
      "pel": 5052,
      "Ġadminist": 5053,
      "Ġtakes": 5054,
      "ĠBook": 5055,
      "Ġfigures": 5056,
      "aS": 5057,
      "ĠCla": 5058,
      "ĠUt": 5059,
      "IVE": 5060,
      "Ġcommunic": 5061,
      "nut": 5062,
      "Ã¼t": 5063,
      "Ã¶nnen": 5064,
      "hÃ¶": 5065,
      "Ġcer": 5066,
      "'-": 5067,
      "lying": 5068,
      "Ġrepresented": 5069,
      "fÃ¼hr": 5070,
      "off": 5071,
      "Ġfilled": 5072,
      "ĠGRE": 5073,
      "endid": 5074,
      "Ġindust": 5075,
      "innati": 5076,
      "Ġsnow": 5077,
      "Ġreduced": 5078,
      "ĠmÃªme": 5079,
      "44": 5080,
      "ĠHay": 5081,
      "uttgart": 5082,
      "Ã¤nge": 5083,
      "Ġelectric": 5084,
      "Ġsister": 5085,
      "owing": 5086,
      "Ġcentral": 5087,
      "Ġremarkable": 5088,
      "eut": 5089,
      "Ġnj": 5090,
      "Ġhen": 5091,
      "umed": 5092,
      "Ġinterests": 5093,
      "Ġhotel": 5094,
      "Ġfrequently": 5095,
      "ele": 5096,
      "ĠPit": 5097,
      "Ġiu": 5098,
      "flanz": 5099,
      "Ġserious": 5100,
      "Ġtyp": 5101,
      "Ġpleasant": 5102,
      "ĠImmediately": 5103,
      "Ġcustom": 5104,
      "Ġsan": 5105,
      "Ġbow": 5106,
      "Ġreally": 5107,
      "ila": 5108,
      "terior": 5109,
      "ĠVal": 5110,
      "flanzen": 5111,
      "lng": 5112,
      "oes": 5113,
      "Ġns": 5114,
      "ĠGE": 5115,
      "riet": 5116,
      "astic": 5117,
      "Ġeditor": 5118,
      "Ġmerch": 5119,
      "lid": 5120,
      "Ġtout": 5121,
      "Ġths": 5122,
      "ĠXX": 5123,
      "Ġfarmers": 5124,
      "AW": 5125,
      "come": 5126,
      "lu": 5127,
      "ĠmÃ¶": 5128,
      "Ġscene": 5129,
      "Ġopening": 5130,
      "Ġpp": 5131,
      "Ġagent": 5132,
      "iring": 5133,
      "cked": 5134,
      "Ġcho": 5135,
      "attes": 5136,
      "Ġwall": 5137,
      "Ġln": 5138,
      "Ġentit": 5139,
      "ossible": 5140,
      "Ġemployed": 5141,
      "Ġwelche": 5142,
      "ĠJOHN": 5143,
      "fig": 5144,
      "isen": 5145,
      "Ġmess": 5146,
      "Ġharm": 5147,
      "ĠHist": 5148,
      "Ġcommer": 5149,
      "Ġbranch": 5150,
      "ingen": 5151,
      "Ġunderstand": 5152,
      "ĠAu": 5153,
      "ogs": 5154,
      "bell": 5155,
      "rc": 5156,
      "Ġmult": 5157,
      "ervation": 5158,
      "Ġcolored": 5159,
      "ĠSold": 5160,
      "Ġ400": 5161,
      "Ġphot": 5162,
      "Ġgentleman": 5163,
      "Ġticket": 5164,
      "sec": 5165,
      "Ġconstitution": 5166,
      "CK": 5167,
      "hol": 5168,
      "hand": 5169,
      "Ġspace": 5170,
      "ĠHaw": 5171,
      "Ġali": 5172,
      "Ġfear": 5173,
      "Ġsubst": 5174,
      "ĠIndians": 5175,
      "Ġhandsome": 5176,
      "SON": 5177,
      "far": 5178,
      "lim": 5179,
      "Ġmand": 5180,
      "ĠSs": 5181,
      "ammen": 5182,
      "ĠCharl": 5183,
      "erer": 5184,
      "isions": 5185,
      "ĠTem": 5186,
      "ieu": 5187,
      "Ġstandard": 5188,
      "Ġpiece": 5189,
      "Ġestablished": 5190,
      "'ve": 5191,
      "ĠMitte": 5192,
      "ĠPle": 5193,
      "Ġip": 5194,
      "Ġparents": 5195,
      "ITH": 5196,
      "Ġpayment": 5197,
      "Ġmoder": 5198,
      "Ġstrike": 5199,
      "ĠMiller": 5200,
      "ĠLewis": 5201,
      "do": 5202,
      "ĠPublic": 5203,
      "Ġstay": 5204,
      "Ġprogram": 5205,
      "ĠChina": 5206,
      "Ġstruck": 5207,
      "Ġborn": 5208,
      "ĠCinc": 5209,
      "ĠAp": 5210,
      "Ġheav": 5211,
      "65": 5212,
      "IAN": 5213,
      "Ġnd": 5214,
      "Ġai": 5215,
      "Ġmist": 5216,
      "Ġven": 5217,
      "Ġvirt": 5218,
      "Ġvigor": 5219,
      "Ġnotes": 5220,
      "lope": 5221,
      "ension": 5222,
      "Ġerr": 5223,
      "Ġcomme": 5224,
      "Ġexamination": 5225,
      "Ġinfluence": 5226,
      "uals": 5227,
      "Ġcivil": 5228,
      "icle": 5229,
      "Ġsave": 5230,
      "Ġinstance": 5231,
      "lls": 5232,
      "Ġstem": 5233,
      "Ġquel": 5234,
      "Ġminute": 5235,
      "Ġfourth": 5236,
      "HING": 5237,
      "Ġmission": 5238,
      "asons": 5239,
      "ĠBON": 5240,
      "Ġvill": 5241,
      "Ġeverything": 5242,
      "Ġsimple": 5243,
      "Ġroads": 5244,
      "70": 5245,
      "Ġlt": 5246,
      "Ġchance": 5247,
      "Ġjury": 5248,
      "Ġzwe": 5249,
      "Ġconnection": 5250,
      "95": 5251,
      "Ġbought": 5252,
      "Ġinh": 5253,
      "ĠSche": 5254,
      "Ġsimply": 5255,
      "Ġpieces": 5256,
      "Ġvalley": 5257,
      "aching": 5258,
      "Ġteeth": 5259,
      "ĠbaS": 5260,
      "Ġfes": 5261,
      "iced": 5262,
      "ala": 5263,
      "lyn": 5264,
      "ushed": 5265,
      "agon": 5266,
      "rant": 5267,
      "Ġ#": 5268,
      "Ġhin": 5269,
      "Ġevent": 5270,
      "ĠAPP": 5271,
      "ĠDor": 5272,
      "ppen": 5273,
      "Ġ195": 5274,
      "ORT": 5275,
      "ĠÃľ": 5276,
      "rf": 5277,
      "arily": 5278,
      "ĠXV": 5279,
      "Ġdrawn": 5280,
      "ipped": 5281,
      "Ġsuccessful": 5282,
      "iS": 5283,
      "sse": 5284,
      "zel": 5285,
      "ĠMen": 5286,
      "Ġstomach": 5287,
      "Ġdelic": 5288,
      "Ġfemale": 5289,
      "heit": 5290,
      "anced": 5291,
      "ĠHigh": 5292,
      "ĠWILL": 5293,
      "lagen": 5294,
      "ailed": 5295,
      "Ġcine": 5296,
      "Ġpon": 5297,
      "Ġuniform": 5298,
      "Ġremains": 5299,
      "Ġapplication": 5300,
      "ares": 5301,
      "inated": 5302,
      "Ġ300": 5303,
      "erald": 5304,
      "Ġknowledge": 5305,
      "Ġpurchase": 5306,
      "Ġdomestic": 5307,
      "house": 5308,
      "atre": 5309,
      "ĠPed": 5310,
      "Ġstar": 5311,
      "ĠFarm": 5312,
      "Ġdisch": 5313,
      "Ġmagn": 5314,
      "ĠTy": 5315,
      "bere": 5316,
      "ĠSegment": 5317,
      "Ġ00": 5318,
      "Ġfc": 5319,
      "Ġeben": 5320,
      "ĠPhys": 5321,
      "Ġfigure": 5322,
      "ĠAttorney": 5323,
      "iche": 5324,
      "Ġrow": 5325,
      "Ġcontain": 5326,
      "ĠÃĦ": 5327,
      "Ġgrounds": 5328,
      "Ġintroduced": 5329,
      "Ġcollection": 5330,
      "Ġreli": 5331,
      "ĠBoth": 5332,
      "Ġ03": 5333,
      "Ġfifteen": 5334,
      "Ġoccupied": 5335,
      "Ġspirit": 5336,
      "IAL": 5337,
      "pet": 5338,
      "ĠMt": 5339,
      "ENTS": 5340,
      "MAN": 5341,
      "fg": 5342,
      "OUS": 5343,
      "Al": 5344,
      "Ġtl": 5345,
      "Ġvice": 5346,
      "ĠUnder": 5347,
      "ARY": 5348,
      "Ġtemperature": 5349,
      "com": 5350,
      "Ġrid": 5351,
      "ggists": 5352,
      "Ġforest": 5353,
      "Ġlegs": 5354,
      "Ġassociation": 5355,
      "Ġaccompan": 5356,
      "Åĵ": 5357,
      "Ġwait": 5358,
      "atten": 5359,
      "verse": 5360,
      "Ġvom": 5361,
      "Ġopposite": 5362,
      "nung": 5363,
      "olution": 5364,
      "Ġremember": 5365,
      "Ġapparently": 5366,
      "Ġentitled": 5367,
      "Ã¹": 5368,
      "ĠBuck": 5369,
      "Ġ53": 5370,
      "Ġlocated": 5371,
      "ROM": 5372,
      "Ġperfectly": 5373,
      "Ġprevious": 5374,
      "UD": 5375,
      "ras": 5376,
      "ted": 5377,
      "Ġster": 5378,
      "Ġfdj": 5379,
      "Ġdull": 5380,
      "ĠMal": 5381,
      "Ġgirls": 5382,
      "Ġhost": 5383,
      "ĠLee": 5384,
      "Ġfinally": 5385,
      "Ġannounced": 5386,
      "Ġbul": 5387,
      "Ġbearing": 5388,
      "ĠPri": 5389,
      "ĠPla": 5390,
      "ĠHart": 5391,
      "Ġshade": 5392,
      "Ġstraight": 5393,
      "Ġfid": 5394,
      "Ġspecific": 5395,
      "Ġnumbers": 5396,
      "Ġabsolute": 5397,
      "Ġdar": 5398,
      "ĠEven": 5399,
      "order": 5400,
      "bted": 5401,
      "fj": 5402,
      "atum": 5403,
      "ĠCur": 5404,
      "Ġib": 5405,
      "ĠThree": 5406,
      "Ġarran": 5407,
      "ĠNews": 5408,
      "Ġreference": 5409,
      "Ġfeeling": 5410,
      "ĠWorld": 5411,
      "umption": 5412,
      "Ġrepublic": 5413,
      "Ġcorrect": 5414,
      "imal": 5415,
      "Ġexact": 5416,
      "Ġsmo": 5417,
      "Ġabsence": 5418,
      "Ġpractice": 5419,
      "Ġsubscri": 5420,
      "47": 5421,
      "rated": 5422,
      "ĠAng": 5423,
      "ĠMT": 5424,
      "ilities": 5425,
      "Ġunf": 5426,
      "ĠHead": 5427,
      "UG": 5428,
      "ĠServ": 5429,
      "ĠZoolog": 5430,
      "He": 5431,
      "roc": 5432,
      "ĠFo": 5433,
      "Ġwealth": 5434,
      "Ġ48": 5435,
      "Ġclerk": 5436,
      "Ġinvited": 5437,
      "ĠAbout": 5438,
      "ĠLabor": 5439,
      "Ġfailed": 5440,
      "Ġ1910": 5441,
      "ĠGrant": 5442,
      "regon": 5443,
      "Ġcouleur": 5444,
      "llig": 5445,
      "igan": 5446,
      "Ġspr": 5447,
      "Ġactivity": 5448,
      "Ġfinal": 5449,
      "Ġeffort": 5450,
      "Ġetwas": 5451,
      "ĠCincinnati": 5452,
      "Wh": 5453,
      "line": 5454,
      "ses": 5455,
      "Ġstop": 5456,
      "ĠIng": 5457,
      "faction": 5458,
      "Ġshoot": 5459,
      "stellung": 5460,
      "Ġpolicy": 5461,
      "Ġcities": 5462,
      "itable": 5463,
      "Ġmiss": 5464,
      "ĠCat": 5465,
      "imum": 5466,
      "ĠRu": 5467,
      "Ġgoes": 5468,
      "Ġfoss": 5469,
      "ĠEach": 5470,
      "ĠVS": 5471,
      "Ġfal": 5472,
      "Ġlived": 5473,
      "Ġliter": 5474,
      "Ġneeded": 5475,
      "Ġihre": 5476,
      "rif": 5477,
      "Ġvac": 5478,
      "cker": 5479,
      "ube": 5480,
      "INGS": 5481,
      "Ġauthority": 5482,
      ".âĢĶ": 5483,
      "We": 5484,
      "gans": 5485,
      "Ġsci": 5486,
      "Ġdur": 5487,
      "Ġmix": 5488,
      "Ġring": 5489,
      "Ġlack": 5490,
      "ĠMissouri": 5491,
      "Ġguests": 5492,
      "Ġga": 5493,
      "ĠMIR": 5494,
      "Ġfeature": 5495,
      "ucky": 5496,
      "Ġbirds": 5497,
      "Ġlignes": 5498,
      "ĠUm": 5499,
      "Ġflu": 5500,
      "ĠPortland": 5501,
      "ential": 5502,
      "ĠLast": 5503,
      "Ġconclus": 5504,
      "Ġareas": 5505,
      "ĠSever": 5506,
      "Ġsense": 5507,
      "ĠJersey": 5508,
      "Ġvicinity": 5509,
      "aign": 5510,
      "fn": 5511,
      "Ġhom": 5512,
      "ĠFif": 5513,
      "ĠConvention": 5514,
      "Ġpleasure": 5515,
      "ij": 5516,
      "ĠCy": 5517,
      "Ġpattern": 5518,
      "ĠMarket": 5519,
      "kunst": 5520,
      "Ġfu": 5521,
      "ĠAut": 5522,
      "izing": 5523,
      "Ġpray": 5524,
      "hnen": 5525,
      "Ġselling": 5526,
      "cm": 5527,
      "Ġnormal": 5528,
      "ĠBed": 5529,
      "ths": 5530,
      "Ġperman": 5531,
      "Ġrob": 5532,
      "ippi": 5533,
      "LL": 5534,
      "iling": 5535,
      "Ġexception": 5536,
      "halten": 5537,
      "Ġsic": 5538,
      "allel": 5539,
      "opf": 5540,
      "Ġstyle": 5541,
      "Ġrendered": 5542,
      "zione": 5543,
      "Ġgross": 5544,
      "ĠVan": 5545,
      "aves": 5546,
      "Ġdispl": 5547,
      "Ġduties": 5548,
      "Ġfung": 5549,
      "Ġpage": 5550,
      "Ġwear": 5551,
      "Ġarms": 5552,
      "Ġspeed": 5553,
      "ĠCleveland": 5554,
      "Ġadvantage": 5555,
      "Ġspeech": 5556,
      "cles": 5557,
      "iet": 5558,
      "iture": 5559,
      "Ġnc": 5560,
      "ĠHal": 5561,
      "Ġcomfort": 5562,
      "rupt": 5563,
      "ieder": 5564,
      "Ã¤rten": 5565,
      "su": 5566,
      "arse": 5567,
      "cell": 5568,
      "ĠDAY": 5569,
      "Ġlargely": 5570,
      "Ġbuildings": 5571,
      "Ġcompleted": 5572,
      "37": 5573,
      "IO": 5574,
      "fdj": 5575,
      "ream": 5576,
      "Ġbere": 5577,
      "ĠSar": 5578,
      "ĠLiver": 5579,
      "Ġkann": 5580,
      "izes": 5581,
      "Ġfreight": 5582,
      "schaft": 5583,
      "ĠAgent": 5584,
      "tl": 5585,
      "unn": 5586,
      "Ġprec": 5587,
      "Ġedge": 5588,
      "Ġoccurs": 5589,
      "Ġplease": 5590,
      "eh": 5591,
      "irable": 5592,
      "Ġattract": 5593,
      "Ġsymp": 5594,
      "ĠJustice": 5595,
      "ĠTimes": 5596,
      "Ġroot": 5597,
      "ĠRoyal": 5598,
      "Ġsituation": 5599,
      "onse": 5600,
      "ims": 5601,
      "Ġstorm": 5602,
      "ods": 5603,
      "Ã¼h": 5604,
      "Ġgeb": 5605,
      "ysis": 5606,
      "ĠMayor": 5607,
      "Ġdistinguished": 5608,
      "49": 5609,
      "rl": 5610,
      "ening": 5611,
      "Ġcrit": 5612,
      "Ġmixed": 5613,
      "Ġeg": 5614,
      "chaft": 5615,
      "Ġvoice": 5616,
      "Ġinterested": 5617,
      "Ġ1876": 5618,
      "Ġglad": 5619,
      "Ġcrossed": 5620,
      "ĠChristian": 5621,
      "ĠTay": 5622,
      "ĠHome": 5623,
      "ĠNc": 5624,
      "ĠGre": 5625,
      "Ġstrict": 5626,
      "ĠLam": 5627,
      "Ġreplied": 5628,
      "Ġcosts": 5629,
      "Ġchanged": 5630,
      "Ġscarce": 5631,
      "Ġpink": 5632,
      "Ġplate": 5633,
      "Ġcontest": 5634,
      "engers": 5635,
      "enen": 5636,
      "stone": 5637,
      "ĠWIN": 5638,
      "Ġpassing": 5639,
      "ĠAdams": 5640,
      "Ġselected": 5641,
      "Ġfellow": 5642,
      "Ġsplendid": 5643,
      "Ġdiameter": 5644,
      "Ġopportunity": 5645,
      "aty": 5646,
      "isse": 5647,
      "Ġnid": 5648,
      "Ġtowards": 5649,
      "ĠPoint": 5650,
      "Ġvia": 5651,
      "atever": 5652,
      "Ġ32": 5653,
      "orted": 5654,
      "Ġapplied": 5655,
      "ĠProv": 5656,
      "Ġdorsal": 5657,
      "Ġdelegates": 5658,
      "gon": 5659,
      "Ġbills": 5660,
      "ulus": 5661,
      "eman": 5662,
      "ements": 5663,
      "ricts": 5664,
      "Ġthereof": 5665,
      "stees": 5666,
      "Ġorganization": 5667,
      "canic": 5668,
      "Ġsons": 5669,
      "Ġoo": 5670,
      "Ġfashion": 5671,
      "Ġlu": 5672,
      "ilis": 5673,
      "ĠStra": 5674,
      "Ã©r": 5675,
      "Ġsocial": 5676,
      "Ġimpossible": 5677,
      "Ġcolors": 5678,
      "Ġemploy": 5679,
      "Ġdelivered": 5680,
      "46": 5681,
      "iert": 5682,
      "Ġion": 5683,
      "ĠCITY": 5684,
      "cean": 5685,
      "Ġindeed": 5686,
      "ĠJohnson": 5687,
      "----": 5688,
      "Ġmodern": 5689,
      "Ġtroops": 5690,
      "Ġcompletely": 5691,
      "Ġthousands": 5692,
      "Ġquantity": 5693,
      "lÃ¤": 5694,
      "Ġbs": 5695,
      "Ġio": 5696,
      "erted": 5697,
      "Ġuseful": 5698,
      "Ġsolid": 5699,
      "ĠGruppe": 5700,
      "ĠHard": 5701,
      "Ġforme": 5702,
      "Ġgranted": 5703,
      "Ġacce": 5704,
      "Ġexpense": 5705,
      "Ġmedium": 5706,
      "Ġbanks": 5707,
      "BR": 5708,
      "five": 5709,
      "Ġtur": 5710,
      "ĠMel": 5711,
      "ĠAnother": 5712,
      "ĠAlbert": 5713,
      "Ġdollar": 5714,
      "conom": 5715,
      "Ii": 5716,
      "ĠMid": 5717,
      "ĠRose": 5718,
      "ĠThird": 5719,
      "licher": 5720,
      "keit": 5721,
      "Ġmineral": 5722,
      "zeich": 5723,
      "Ġhorns": 5724,
      "Ġlam": 5725,
      "Ġgas": 5726,
      "ĠAre": 5727,
      "ĠLos": 5728,
      "isted": 5729,
      "Ġmechan": 5730,
      "ĠNev": 5731,
      "Ġhay": 5732,
      "ĠCAR": 5733,
      "Ġrh": 5734,
      "Ġcompet": 5735,
      "Ġformation": 5736,
      "amps": 5737,
      "Ġdemon": 5738,
      "ĠTrans": 5739,
      "):": 5740,
      "Ġfit": 5741,
      "Ġprot": 5742,
      "Ġbrill": 5743,
      "Ġtrains": 5744,
      "ĠWho": 5745,
      "Ġthoroughly": 5746,
      "ĠMartin": 5747,
      "PER": 5748,
      "othes": 5749,
      "ulate": 5750,
      "ĠStr": 5751,
      "ĠStand": 5752,
      "Ġener": 5753,
      "Ġaffected": 5754,
      "ĠCommon": 5755,
      "Ġsnake": 5756,
      "Ġbottom": 5757,
      "ller": 5758,
      "ĠCast": 5759,
      "Ã¼d": 5760,
      "Ġworked": 5761,
      "ĠElm": 5762,
      "Ġcu": 5763,
      "Ġcongress": 5764,
      "Ġcomposed": 5765,
      "Ġpreced": 5766,
      "Ġaccord": 5767,
      "Ġunderst": 5768,
      "Ġhappy": 5769,
      "Ġparticularly": 5770,
      "Ġwonderful": 5771,
      "Ġquartz": 5772,
      "ĠHotel": 5773,
      "Ġcircumst": 5774,
      "Ir": 5775,
      "bit": 5776,
      "bles": 5777,
      "Ġties": 5778,
      "Ġpale": 5779,
      "Ġnt": 5780,
      "aine": 5781,
      "Ġexposed": 5782,
      "Ġgrain": 5783,
      "Ġconcent": 5784,
      "Ġsalt": 5785,
      "Ġbattle": 5786,
      "ĠTie": 5787,
      "ĠFam": 5788,
      "Ġvas": 5789,
      "Ġextern": 5790,
      "Ġfinest": 5791,
      "72": 5792,
      "olic": 5793,
      "ĠLath": 5794,
      "Ġalter": 5795,
      "ORE": 5796,
      "ĠClay": 5797,
      "Ġaffairs": 5798,
      "Ġbeauty": 5799,
      "ĠSyst": 5800,
      "Ġvel": 5801,
      "ĠSÃŁ": 5802,
      "ĠBell": 5803,
      "igung": 5804,
      "ĠNa": 5805,
      "Ġdeut": 5806,
      "Ġsixty": 5807,
      "Ġlimited": 5808,
      "ĠLongueur": 5809,
      "now": 5810,
      "Ġlying": 5811,
      "ĠNat": 5812,
      "Ġada": 5813,
      "oking": 5814,
      "Ġraces": 5815,
      "Ġmilitary": 5816,
      "aii": 5817,
      "Ġcaught": 5818,
      "roit": 5819,
      "ĠÂ£>": 5820,
      "Ġdanger": 5821,
      "Ġpred": 5822,
      "Ġviel": 5823,
      "istant": 5824,
      "Ġproject": 5825,
      "hens": 5826,
      "ĠAnge": 5827,
      ",,,": 5828,
      "Ġdraw": 5829,
      "Ġhardly": 5830,
      "oman": 5831,
      "ĠLow": 5832,
      "Ġdemocrat": 5833,
      "ĠSpanish": 5834,
      "fre": 5835,
      "ĠTur": 5836,
      "Ġeigh": 5837,
      "ĠPers": 5838,
      "Ġguard": 5839,
      "Ġ%.": 5840,
      "AST": 5841,
      "Ã¼nst": 5842,
      "inite": 5843,
      "Ġunion": 5844,
      "Ġture": 5845,
      "Ġyes": 5846,
      "Ġsole": 5847,
      "esota": 5848,
      "Ġpul": 5849,
      "Ġnn": 5850,
      "Ġproof": 5851,
      "rid": 5852,
      "Ġtend": 5853,
      "Ġsharp": 5854,
      "Ġdirected": 5855,
      "Ġsuffering": 5856,
      "Ġdivision": 5857,
      "ĠMedical": 5858,
      "Ġdamage": 5859,
      "OUR": 5860,
      "yd": 5861,
      "ĠWard": 5862,
      "usion": 5863,
      "geben": 5864,
      "Ã¤ch": 5865,
      "Ġadult": 5866,
      "Ġagree": 5867,
      "Ġcool": 5868,
      "Ġbiefe": 5869,
      "ĠNotice": 5870,
      "Ġinjured": 5871,
      "ais": 5872,
      "bur": 5873,
      "Ġoy": 5874,
      "Ġnatur": 5875,
      "alled": 5876,
      "ĠStuttgart": 5877,
      "ĠAlthough": 5878,
      "Ġproportion": 5879,
      "Ġquickly": 5880,
      "76": 5881,
      "erm": 5882,
      "ĠOregon": 5883,
      "rance": 5884,
      "Ġeines": 5885,
      "Ġrequest": 5886,
      "ĠGeorgia": 5887,
      "Ġhonest": 5888,
      "fon": 5889,
      "isp": 5890,
      "Ġelyt": 5891,
      "ĠWa": 5892,
      "teil": 5893,
      "nell": 5894,
      "neys": 5895,
      "Ġbridge": 5896,
      "Ġcurrent": 5897,
      "ĠTime": 5898,
      "Ġeat": 5899,
      "ĠMore": 5900,
      "sted": 5901,
      "ĠWild": 5902,
      "ĠVi": 5903,
      "ĠVII": 5904,
      "Ġ1877": 5905,
      "Ġplanted": 5906,
      "Ġcollected": 5907,
      "Ġdirectly": 5908,
      "paid": 5909,
      "ture": 5910,
      "Ġproc": 5911,
      "velt": 5912,
      "-\"": 5913,
      "cia": 5914,
      "Ġpull": 5915,
      "ĠThose": 5916,
      "atoes": 5917,
      "ĠMorris": 5918,
      "Ġrecorded": 5919,
      ".),": 5920,
      "UST": 5921,
      "Ġdont": 5922,
      "Ġthrown": 5923,
      "ilty": 5924,
      "ĠDIE": 5925,
      "key": 5926,
      "Ġcharges": 5927,
      "Ġcourts": 5928,
      "Ġsuggest": 5929,
      "ĠDet": 5930,
      "ĠLu": 5931,
      "Ġasc": 5932,
      "alle": 5933,
      "ĠKent": 5934,
      "Ġexamined": 5935,
      "Ġwenn": 5936,
      "ibia": 5937,
      "Ġsoldiers": 5938,
      "Ġpurchased": 5939,
      "TO": 5940,
      "rate": 5941,
      "hels": 5942,
      "ĠSav": 5943,
      "alen": 5944,
      "ĠTen": 5945,
      "Ġstands": 5946,
      "Ġanterior": 5947,
      "Ġ86": 5948,
      "Ġmyself": 5949,
      "Ġirreg": 5950,
      "ĠAustral": 5951,
      "ĠFourth": 5952,
      "Ġaccompanied": 5953,
      "Ġsmooth": 5954,
      "ĠSeveral": 5955,
      "bc": 5956,
      "iage": 5957,
      "IONS": 5958,
      "Ġrights": 5959,
      "Ġprovide": 5960,
      "Ġabundant": 5961,
      "VE": 5962,
      "unes": 5963,
      "Ġfurnish": 5964,
      "inus": 5965,
      "Ġwants": 5966,
      "Ġnv": 5967,
      "Ġthrow": 5968,
      "aken": 5969,
      "Ġalb": 5970,
      "ffer": 5971,
      "Ġlarvae": 5972,
      "clos": 5973,
      "Ġvotes": 5974,
      "Ġcampaign": 5975,
      "Ġdestroyed": 5976,
      "Ġthroat": 5977,
      ".).": 5978,
      "oR": 5979,
      "Ġsow": 5980,
      "vels": 5981,
      "ĠFire": 5982,
      "avor": 5983,
      "Ġspend": 5984,
      "Ġcollect": 5985,
      "ARTEN": 5986,
      "sd": 5987,
      "Ġfles": 5988,
      "Ġoft": 5989,
      "ĠOFF": 5990,
      "Ġapply": 5991,
      "rh": 5992,
      "Ġtic": 5993,
      "Ġhospital": 5994,
      "Ġnut": 5995,
      "olt": 5996,
      "using": 5997,
      "Ġbecomes": 5998,
      "Ġextended": 5999,
      "Ġcenter": 6000,
      "Ġowner": 6001,
      "Ġconsideration": 6002,
      "Ġ1880": 6003,
      "Ġcredit": 6004,
      "Ġfeed": 6005,
      "olds": 6006,
      "ugen": 6007,
      "Ġsilk": 6008,
      "Ol": 6009,
      "glich": 6010,
      "oz": 6011,
      "Ġsor": 6012,
      "Ġbir": 6013,
      "ĠSuch": 6014,
      "Ġreceipts": 6015,
      "ĠIndia": 6016,
      "Ġdistribution": 6017,
      "ĠLargeur": 6018,
      "Ġnewspaper": 6019,
      "Ġthreat": 6020,
      "ĠScott": 6021,
      "Ġrelatives": 6022,
      "Ġtestim": 6023,
      "Ġantennes": 6024,
      "ded": 6025,
      "ero": 6026,
      "Ġowing": 6027,
      "orse": 6028,
      "Ġpow": 6029,
      "itÃ©": 6030,
      "olf": 6031,
      "Ġdesired": 6032,
      "Ġotherwise": 6033,
      "rm": 6034,
      "ĠRO": 6035,
      "Ġimmer": 6036,
      "Ġvolcanic": 6037,
      "Ġmatters": 6038,
      "Ġtp": 6039,
      "alm": 6040,
      "ĠAC": 6041,
      "teenth": 6042,
      "Ã¤m": 6043,
      "Ġnoir": 6044,
      "acity": 6045,
      "Ġchem": 6046,
      "iction": 6047,
      "Ġ10000": 6048,
      "Ġpossess": 6049,
      "42": 6050,
      "Ġsont": 6051,
      "Ġpit": 6052,
      "Ġlab": 6053,
      "illes": 6054,
      "Ġexample": 6055,
      "Ġenl": 6056,
      "aintiff": 6057,
      "Ġvolume": 6058,
      "Ġprobable": 6059,
      "New": 6060,
      "ĠRand": 6061,
      "ĠVere": 6062,
      "ĠStadt": 6063,
      "Ġcrim": 6064,
      "Ġbalance": 6065,
      "ĠRus": 6066,
      "Ġrent": 6067,
      "Ġmans": 6068,
      "amples": 6069,
      "Ġserve": 6070,
      "ao": 6071,
      "dt": 6072,
      "Ġears": 6073,
      "ieg": 6074,
      "ĠWat": 6075,
      "ulations": 6076,
      "cket": 6077,
      "rane": 6078,
      "ICH": 6079,
      "Ġrailway": 6080,
      "Ġstriking": 6081,
      "DER": 6082,
      "Ġsir": 6083,
      "ĠMir": 6084,
      "Ġdefe": 6085,
      "Ġ93": 6086,
      "hlen": 6087,
      "Ġconnected": 6088,
      "llen": 6089,
      "Ġgre": 6090,
      "ĠCOR": 6091,
      "ĠMAN": 6092,
      "ĠJac": 6093,
      "Ġunus": 6094,
      "Ġpopulation": 6095,
      "Ġcrops": 6096,
      "amen": 6097,
      "auer": 6098,
      "essee": 6099,
      "ĠRosen": 6100,
      "Ġallen": 6101,
      "assen": 6102,
      "ĠChair": 6103,
      "Ġmargin": 6104,
      "Ġreading": 6105,
      "ĠAbb": 6106,
      "Ġcream": 6107,
      "dn": 6108,
      "Ġmes": 6109,
      "ĠLife": 6110,
      "ILE": 6111,
      "Ġ1891": 6112,
      "PR": 6113,
      "etts": 6114,
      "erved": 6115,
      "ĠPrin": 6116,
      "Ġholding": 6117,
      "ĠAtlantic": 6118,
      "AH": 6119,
      "Ġore": 6120,
      "Ġcas": 6121,
      "Ġcreat": 6122,
      "ĠMost": 6123,
      "quar": 6124,
      "kee": 6125,
      "Ġpointed": 6126,
      "ĠCanada": 6127,
      "Ġlearned": 6128,
      "OCK": 6129,
      "Ġrecommend": 6130,
      "Ġtain": 6131,
      "idis": 6132,
      "Ġdog": 6133,
      "ĠTaylor": 6134,
      "Ġaccepted": 6135,
      "jt": 6136,
      "ÃĦ": 6137,
      "Ġpattes": 6138,
      "Ġinner": 6139,
      "ĠObst": 6140,
      "gef": 6141,
      "Ġaccident": 6142,
      "Ġtract": 6143,
      "Ġtonight": 6144,
      "Ġproduction": 6145,
      "Ã¤rtner": 6146,
      "ĠFROM": 6147,
      "ulars": 6148,
      "Ġspots": 6149,
      "Ġknows": 6150,
      "ĠMajor": 6151,
      "Ġprotection": 6152,
      "ĠFa": 6153,
      "nten": 6154,
      "Sc": 6155,
      "vy": 6156,
      "oured": 6157,
      "ĠSalt": 6158,
      "ĠOB": 6159,
      "ĠLoc": 6160,
      "Ġunknown": 6161,
      "Ġfeatures": 6162,
      "URE": 6163,
      "ĠBox": 6164,
      "ibrary": 6165,
      "32": 6166,
      "De": 6167,
      "Ġax": 6168,
      "ĠHas": 6169,
      "Ġparallel": 6170,
      "ĠWhy": 6171,
      "Ġbushels": 6172,
      "Ġ%,": 6173,
      "ĠMinnesota": 6174,
      "KUN": 6175,
      "Ġ42": 6176,
      "Ġtravell": 6177,
      "Ġdelight": 6178,
      "Ġadditional": 6179,
      "Ġroute": 6180,
      "Ġtue": 6181,
      "heim": 6182,
      "Ġnu": 6183,
      "Ġefforts": 6184,
      "ĠMoore": 6185,
      "IRE": 6186,
      "inery": 6187,
      "ĠRel": 6188,
      "lag": 6189,
      "Ġspect": 6190,
      "Ġ!,": 6191,
      "Ġmetamorph": 6192,
      "Ġjohn": 6193,
      "ĠLegislature": 6194,
      "31": 6195,
      "Ts": 6196,
      "ĠSand": 6197,
      "ĠTrib": 6198,
      "irm": 6199,
      "ĠKell": 6200,
      "Ġtele": 6201,
      "ĠFlorida": 6202,
      "Ã´t": 6203,
      "ĠColonel": 6204,
      "uk": 6205,
      "onia": 6206,
      "Ġbands": 6207,
      "lly": 6208,
      "Ġhearing": 6209,
      "Ġ95": 6210,
      "issippi": 6211,
      "otted": 6212,
      "ĠSamuel": 6213,
      "Ġarranged": 6214,
      "hi": 6215,
      "Ġae": 6216,
      "Ġmut": 6217,
      "ĠBU": 6218,
      "Ġdebt": 6219,
      "Ġability": 6220,
      "Ġagents": 6221,
      "ĠWhit": 6222,
      "Ġdisplay": 6223,
      "Mr": 6224,
      "Ġbond": 6225,
      "Ġpm": 6226,
      "Ġbeau": 6227,
      "Ġrat": 6228,
      "Ġproble": 6229,
      "Ġsigned": 6230,
      "ĠImpro": 6231,
      "Ġaccompl": 6232,
      "wischen": 6233,
      "Ġpaint": 6234,
      "Ġnin": 6235,
      "ĠBow": 6236,
      "ums": 6237,
      "umes": 6238,
      "Ġflow": 6239,
      "heast": 6240,
      "Ġcup": 6241,
      "Ġlin": 6242,
      "ĠDom": 6243,
      "itekt": 6244,
      "Ġcounties": 6245,
      "Ġpublication": 6246,
      "ĠPitts": 6247,
      "Ġwaters": 6248,
      "Ġcir": 6249,
      "enti": 6250,
      "ĠCirc": 6251,
      "unb": 6252,
      "Ġrise": 6253,
      "Ġsearch": 6254,
      "ĠChief": 6255,
      "Ġenth": 6256,
      "ahr": 6257,
      "Ġdecision": 6258,
      "ĠFigure": 6259,
      "Ġfuneral": 6260,
      "Ġligne": 6261,
      "Ġult": 6262,
      "rier": 6263,
      "ĠUe": 6264,
      "ĠThus": 6265,
      "Ġarch": 6266,
      "ASS": 6267,
      "Ġfamous": 6268,
      "Ġmilk": 6269,
      "Ġlegisl": 6270,
      "KUNST": 6271,
      "gage": 6272,
      "Ġfp": 6273,
      "Ġfs": 6274,
      "Ġgla": 6275,
      "ĠWhere": 6276,
      "ĠGARTEN": 6277,
      "ĠLadies": 6278,
      "rial": 6279,
      "Ġderen": 6280,
      "ishop": 6281,
      "ĠIndiana": 6282,
      "ĠGesell": 6283,
      "Ġfamilies": 6284,
      "zer": 6285,
      "isters": 6286,
      "Ġhal": 6287,
      "ĠThomp": 6288,
      "elles": 6289,
      "Ġ99": 6290,
      "ANC": 6291,
      "Ġcontact": 6292,
      "Ġ^^": 6293,
      "For": 6294,
      "LAND": 6295,
      "Ġincl": 6296,
      "ĠMON": 6297,
      "ieb": 6298,
      "oli": 6299,
      "ĠGlo": 6300,
      "Ġnov": 6301,
      "ITE": 6302,
      "Ġdc": 6303,
      "ĠRoose": 6304,
      "ĠBuild": 6305,
      "ĠCD": 6306,
      "irk": 6307,
      "ĠExt": 6308,
      "rup": 6309,
      "Ġapart": 6310,
      "Ġacid": 6311,
      "Ġplayed": 6312,
      "DE": 6313,
      "don": 6314,
      "lm": 6315,
      "oln": 6316,
      "Ġ91": 6317,
      "acus": 6318,
      "Ġpron": 6319,
      "Ġadjourn": 6320,
      "Ġwrite": 6321,
      "Ġbrick": 6322,
      "ido": 6323,
      "ĠVery": 6324,
      "Ġdepth": 6325,
      "Ġtownship": 6326,
      "Ġfarmer": 6327,
      "Ġprinted": 6328,
      "Ġtaste": 6329,
      "ko": 6330,
      "ĠTurn": 6331,
      "Ġseek": 6332,
      "Ġ...": 6333,
      "Ġsatisfaction": 6334,
      "Ġsituated": 6335,
      "uu": 6336,
      "Ġtive": 6337,
      "Ġlog": 6338,
      "ĠTars": 6339,
      "ĠNr": 6340,
      "Ġstark": 6341,
      "ĠEastern": 6342,
      "ĠStar": 6343,
      "ĠKen": 6344,
      "Ã¨res": 6345,
      "ĠCenter": 6346,
      "ĠNevada": 6347,
      "Ġhind": 6348,
      "ĠNatural": 6349,
      "ĠGO": 6350,
      "ĠFinger": 6351,
      "Ġheads": 6352,
      "Ġ1913": 6353,
      "Ġodor": 6354,
      "Ġinsects": 6355,
      "Ġcompanies": 6356,
      "Ġtitle": 6357,
      "38": 6358,
      "Ia": 6359,
      "nf": 6360,
      "Ġpath": 6361,
      "ĠBot": 6362,
      "iges": 6363,
      "Ġ56": 6364,
      "abenh": 6365,
      "Ġgentlemen": 6366,
      "Iy": 6367,
      "iis": 6368,
      "ĠmÃ¢": 6369,
      "Ġgang": 6370,
      "ĠBL": 6371,
      "sell": 6372,
      "Ġrib": 6373,
      "fern": 6374,
      "nc": 6375,
      "ĠMethod": 6376,
      "cho": 6377,
      "riz": 6378,
      "Ġ66": 6379,
      "ÃŁer": 6380,
      "Ġproperly": 6381,
      "Ġlatest": 6382,
      "athered": 6383,
      "work": 6384,
      "orial": 6385,
      "idney": 6386,
      "Ġpassage": 6387,
      "Ġtreated": 6388,
      "Ġcarefully": 6389,
      "Ġincluded": 6390,
      "HER": 6391,
      "Ic": 6392,
      "Ġtect": 6393,
      "inf": 6394,
      "Ġfest": 6395,
      "unter": 6396,
      "iven": 6397,
      "ĠStud": 6398,
      "chester": 6399,
      "Ġaux": 6400,
      "Ġtext": 6401,
      "Ġfinan": 6402,
      "Ã¦": 6403,
      "Ġpup": 6404,
      "omb": 6405,
      "amin": 6406,
      "Ġverd": 6407,
      "Ġafford": 6408,
      "ĠHarry": 6409,
      "Ġgrande": 6410,
      "Ġimproved": 6411,
      "sembly": 6412,
      "CO": 6413,
      "Ġfancy": 6414,
      "Ġbeim": 6415,
      "Ġeral": 6416,
      "Ġneighbor": 6417,
      "52": 6418,
      "tc": 6419,
      "yg": 6420,
      "Ġburg": 6421,
      "ito": 6422,
      "ĠPeter": 6423,
      "Ġdeed": 6424,
      "ICAL": 6425,
      "Ġguest": 6426,
      "ĠWoods": 6427,
      "Id": 6428,
      "gle": 6429,
      "mine": 6430,
      "Ġdecre": 6431,
      "ĠEarly": 6432,
      "rian": 6433,
      "Ġunable": 6434,
      "Ġjed": 6435,
      "ĠThr": 6436,
      "icted": 6437,
      "Ġtuber": 6438,
      "Ġburned": 6439,
      "hof": 6440,
      "rich": 6441,
      "ĠOber": 6442,
      "ĠMI": 6443,
      "oked": 6444,
      "Ġclim": 6445,
      "Ġversch": 6446,
      "ĠSOC": 6447,
      "ĠEliz": 6448,
      "ĠCe": 6449,
      "ĠED": 6450,
      "Ġfeeding": 6451,
      "Ġrefused": 6452,
      "Ġobtain": 6453,
      "cop": 6454,
      "uine": 6455,
      "Ġtall": 6456,
      "Ġuna": 6457,
      "mense": 6458,
      "ĠGARTENKUNST": 6459,
      "48": 6460,
      "Ġwise": 6461,
      "ĠSqu": 6462,
      "ĠOt": 6463,
      "Ġowners": 6464,
      "-'": 6465,
      "So": 6466,
      "Ġways": 6467,
      "ĠOver": 6468,
      "uni": 6469,
      "Ġseat": 6470,
      "thur": 6471,
      "ĠAndrew": 6472,
      "âĸłâĸł": 6473,
      "ĠPeters": 6474,
      "LES": 6475,
      "ault": 6476,
      "hem": 6477,
      "ĠSD": 6478,
      "aling": 6479,
      "lands": 6480,
      "Ġrelations": 6481,
      "ĠBaumsch": 6482,
      "Ġopt": 6483,
      "Ġmap": 6484,
      "ĠOH": 6485,
      "ioni": 6486,
      "omen": 6487,
      "ĠBir": 6488,
      "Ġchap": 6489,
      "anged": 6490,
      "Ġdistricts": 6491,
      "Ġexpenses": 6492,
      "ĠOnly": 6493,
      "ĠAMI": 6494,
      "Ġinsect": 6495,
      "vs": 6496,
      "Ġrn": 6497,
      "Ġconve": 6498,
      "Ġarrive": 6499,
      "Ġtaxes": 6500,
      "ĠSprings": 6501,
      "oir": 6502,
      "Ġcro": 6503,
      "Ġdrop": 6504,
      "asen": 6505,
      "ĠSale": 6506,
      "standing": 6507,
      "ĠRegister": 6508,
      "braun": 6509,
      "ĠForest": 6510,
      "39": 6511,
      "ache": 6512,
      "icus": 6513,
      "Ġeconom": 6514,
      "Ġreco": 6515,
      "Ġguilty": 6516,
      "ounced": 6517,
      "Ġwrites": 6518,
      "Ġprinci": 6519,
      "aser": 6520,
      "uty": 6521,
      "aks": 6522,
      "Ġwilling": 6523,
      "Ġgray": 6524,
      "Ġactual": 6525,
      "Ġresponse": 6526,
      "ĠColorado": 6527,
      "worth": 6528,
      "~~": 6529,
      "inet": 6530,
      "ĠAz": 6531,
      "lect": 6532,
      "allen": 6533,
      "Ġshare": 6534,
      "Ġinterv": 6535,
      "Ġlocation": 6536,
      "ĠGov": 6537,
      "Ġregarded": 6538,
      "Ġautres": 6539,
      "Ġmachine": 6540,
      "iculty": 6541,
      "Ġpromptly": 6542,
      "Ġunderstood": 6543,
      "NS": 6544,
      "rees": 6545,
      "ĠlO": 6546,
      "ĠDa": 6547,
      "ĠFalls": 6548,
      "Ġrough": 6549,
      "orticult": 6550,
      "ĠWeek": 6551,
      "Ġdelay": 6552,
      "Ġoperation": 6553,
      "ĠTreasurer": 6554,
      "Ġagreed": 6555,
      "hc": 6556,
      "Ġliz": 6557,
      "ĠSel": 6558,
      "Ġgest": 6559,
      "Ġwhatever": 6560,
      "Ġcha": 6561,
      "Ġ,.": 6562,
      "ĠCommer": 6563,
      "Ġterritory": 6564,
      "ĠAlb": 6565,
      "Ġ1995": 6566,
      "05": 6567,
      "lf": 6568,
      "oer": 6569,
      "inch": 6570,
      "Ġpark": 6571,
      "aska": 6572,
      "ĠDz": 6573,
      "Ġvs": 6574,
      "Ġvary": 6575,
      "ĠKÃ¶r": 6576,
      "Ġdisappe": 6577,
      "iley": 6578,
      "Ġcler": 6579,
      "Ġcheck": 6580,
      "Ġtowns": 6581,
      "Ġindividuals": 6582,
      "Ġfelsp": 6583,
      "Ġirregular": 6584,
      "41": 6585,
      "rift": 6586,
      "ICK": 6587,
      "Ġcollege": 6588,
      "Ġmicros": 6589,
      "Ġsaved": 6590,
      "ĠTennessee": 6591,
      "after": 6592,
      "ĠOk": 6593,
      "ĠInt": 6594,
      "AMES": 6595,
      "legraph": 6596,
      "Ġclaimed": 6597,
      "stitution": 6598,
      "cientific": 6599,
      "Ġnm": 6600,
      "ĠHÃ¶": 6601,
      "ĠVe": 6602,
      "ENS": 6603,
      "Ġfinished": 6604,
      "Ġcareful": 6605,
      "Ġhealthy": 6606,
      "Ġboxes": 6607,
      "QU": 6608,
      "dd": 6609,
      "Ġbarn": 6610,
      "ĠBon": 6611,
      "ĠGartenkunst": 6612,
      "Ġprofession": 6613,
      "cen": 6614,
      "fem": 6615,
      "more": 6616,
      "heum": 6617,
      "Ġmaster": 6618,
      "Ġexcess": 6619,
      "Ġneither": 6620,
      "nex": 6621,
      ".,,": 6622,
      "Ġ1915": 6623,
      "Ġsignific": 6624,
      "Ġtender": 6625,
      "inate": 6626,
      "Ġmont": 6627,
      "ĠGil": 6628,
      "ĠLIST": 6629,
      "Ġunders": 6630,
      "ĠAllen": 6631,
      "ĠPrince": 6632,
      "Ġquestions": 6633,
      "Ġavailable": 6634,
      "WE": 6635,
      "wart": 6636,
      "Ġtip": 6637,
      "rip": 6638,
      "Ġaltern": 6639,
      "Ġbrief": 6640,
      "Ġsurv": 6641,
      "ĠOrd": 6642,
      "Ġ1914": 6643,
      "Ġinvestig": 6644,
      "Ġbure": 6645,
      "Ġwounded": 6646,
      "Ġhur": 6647,
      "ĠSince": 6648,
      "room": 6649,
      "ĠAct": 6650,
      "ĠPO": 6651,
      "ĠPier": 6652,
      "Ġfever": 6653,
      "''''": 6654,
      "Ġconstru": 6655,
      "Ġbadly": 6656,
      "ĠWheel": 6657,
      "Ġcauses": 6658,
      "ĠAnderson": 6659,
      "Ġexistence": 6660,
      "ĠPsitt": 6661,
      "ĠSanta": 6662,
      "ĠThompson": 6663,
      "78": 6664,
      "MENT": 6665,
      "Ġdinner": 6666,
      "Ġhill": 6667,
      "chl": 6668,
      "ĠGal": 6669,
      "ella": 6670,
      "Ġpossession": 6671,
      "Ġreadily": 6672,
      "Ġtempor": 6673,
      "Ġtariff": 6674,
      "fie": 6675,
      "ĠBiol": 6676,
      "Ġstrat": 6677,
      "Ġ1870": 6678,
      "affen": 6679,
      "ĠDemocrats": 6680,
      "Ġtrying": 6681,
      "Ġneighb": 6682,
      "Ġplatform": 6683,
      "Ġign": 6684,
      "Ġtenden": 6685,
      "Ġdip": 6686,
      "Ġming": 6687,
      "Ġlies": 6688,
      "Ġconclud": 6689,
      "Ġ68": 6690,
      "Ġbecoming": 6691,
      "Ġ1884": 6692,
      "Ġohne": 6693,
      "master": 6694,
      "ĠSup": 6695,
      "ĠMat": 6696,
      "ĠMas": 6697,
      "ĠFri": 6698,
      "ĠInse": 6699,
      "Ġcontro": 6700,
      "ĠArk": 6701,
      "ĠefpÃ©ce": 6702,
      "Ġbreat": 6703,
      "stru": 6704,
      "ĠBus": 6705,
      "rab": 6706,
      "Ġdear": 6707,
      "Ġorgans": 6708,
      "berts": 6709,
      "Ġking": 6710,
      "ĠYour": 6711,
      "ĠĠĠĠĠĠĠĠĠĠĠĠĠĠĠĠĠĠĠĠĠĠĠĠĠĠĠĠĠĠĠĠ": 6712,
      "ĠespÃ¨": 6713,
      "Re": 6714,
      "Ġtrop": 6715,
      "Ġlav": 6716,
      "Ġlake": 6717,
      "stÃ¤nd": 6718,
      "Ġ62": 6719,
      "ĠSeiten": 6720,
      "Ġhybr": 6721,
      "Ġpremises": 6722,
      "Ġestimated": 6723,
      "Ġoe": 6724,
      "ĠCab": 6725,
      "ĠNach": 6726,
      "ĠNOR": 6727,
      "under": 6728,
      "Ġmarriage": 6729,
      "Ġsaying": 6730,
      "Ġlimit": 6731,
      "ĠALL": 6732,
      "ĠGesellschaft": 6733,
      "gent": 6734,
      "lb": 6735,
      "sm": 6736,
      "Ġgun": 6737,
      "ennial": 6738,
      "ĠBei": 6739,
      "arrh": 6740,
      "Ġmountain": 6741,
      "kin": 6742,
      "Ġpany": 6743,
      "Ġhunt": 6744,
      "icide": 6745,
      "Ġnice": 6746,
      "ĠMck": 6747,
      "ĠrÃ©": 6748,
      "Ġ69": 6749,
      "crs": 6750,
      "ĠScot": 6751,
      "ktor": 6752,
      "Ġplanting": 6753,
      "Ġdifficulty": 6754,
      "Ġoccasionally": 6755,
      "ĠHarrison": 6756,
      "HINGTON": 6757,
      "ties": 6758,
      "Ġfixed": 6759,
      "ifc": 6760,
      "Ġrecords": 6761,
      "Ġindep": 6762,
      "ĠMississippi": 6763,
      "Ġofficials": 6764,
      "ĠFemur": 6765,
      "zes": 6766,
      "Ġcin": 6767,
      "itis": 6768,
      "rient": 6769,
      "Ġnoted": 6770,
      "ĠRoad": 6771,
      "ĠRepresent": 6772,
      "Ġcrossing": 6773,
      "ki": 6774,
      "oral": 6775,
      "ĠSA": 6776,
      "ĠOut": 6777,
      "ĠAud": 6778,
      "ĠPan": 6779,
      "cement": 6780,
      "ĠWalk": 6781,
      "phis": 6782,
      "ĠSpain": 6783,
      "ĠAssistant": 6784,
      "Ġsettled": 6785,
      "Ġcommunity": 6786,
      "cknow": 6787,
      "chell": 6788,
      "Ġchez": 6789,
      "Ġstopped": 6790,
      "ned": 6791,
      "Ġbath": 6792,
      "ĠMcc": 6793,
      "Ġ58": 6794,
      "ĠCape": 6795,
      "Ġkeeping": 6796,
      "Ġthu": 6797,
      "legen": 6798,
      "ĠHerald": 6799,
      "unic": 6800,
      "ĠJul": 6801,
      "Ġsail": 6802,
      "ahme": 6803,
      "Ġseparate": 6804,
      "ĠAngeles": 6805,
      "inb": 6806,
      "ĠsS": 6807,
      "Ġfch": 6808,
      "ĠDi": 6809,
      "Ġscales": 6810,
      "Ġposter": 6811,
      "Ġlegal": 6812,
      "Ġexperiment": 6813,
      "ABLE": 6814,
      "water": 6815,
      "Ġps": 6816,
      "ĠBarn": 6817,
      "Ġrum": 6818,
      "ORY": 6819,
      "Ġexpressed": 6820,
      "jection": 6821,
      "Ġextensive": 6822,
      "fy": 6823,
      "ĠSor": 6824,
      "roe": 6825,
      "ĠMIN": 6826,
      "ĠNel": 6827,
      "abr": 6828,
      "Ġmanagement": 6829,
      "iano": 6830,
      "Ġcouncil": 6831,
      "ricultural": 6832,
      "Ġsuddenly": 6833,
      "ĠDies": 6834,
      "Ġaggreg": 6835,
      "Ġsuffer": 6836,
      "Ġwriting": 6837,
      "ĠCOMP": 6838,
      "Ġgradu": 6839,
      "Ġwrong": 6840,
      "Ġdiscussion": 6841,
      "Ġbodies": 6842,
      "Ġwed": 6843,
      "Ġsue": 6844,
      "Ġ41": 6845,
      "ĠYesterday": 6846,
      "Ġlongitud": 6847,
      "Ġexceeding": 6848,
      "Ġrelation": 6849,
      "Ġmillion": 6850,
      "ĠBrooklyn": 6851,
      "oire": 6852,
      "ĠLar": 6853,
      "ĠLinc": 6854,
      "ĠSection": 6855,
      "itions": 6856,
      "ĠAny": 6857,
      "Ġtrouve": 6858,
      "uv": 6859,
      "Ġtour": 6860,
      "Ġcess": 6861,
      "Ġdil": 6862,
      "ĠOl": 6863,
      "Ġec": 6864,
      "ĠCro": 6865,
      "Ġrele": 6866,
      "ĠPen": 6867,
      "ĠWANTED": 6868,
      "ĠFree": 6869,
      "Ġalarm": 6870,
      "Ġimper": 6871,
      "Ġcoer": 6872,
      "Ġbene": 6873,
      "Ġ1874": 6874,
      "ĠGray": 6875,
      "Ġlowest": 6876,
      "Ġsenate": 6877,
      "Ġbehav": 6878,
      "ĠCuba": 6879,
      "rons": 6880,
      "Ġhills": 6881,
      "ĠTibia": 6882,
      "ĠPills": 6883,
      "pelled": 6884,
      "Ġaller": 6885,
      "ISS": 6886,
      "athy": 6887,
      "Ġsubsequ": 6888,
      "Ġbroke": 6889,
      "Ġrequested": 6890,
      "Ġ\\.": 6891,
      "Ġalleged": 6892,
      "Ġprospect": 6893,
      "ĠJeff": 6894,
      "yers": 6895,
      "Ġpractically": 6896,
      "ĠChristmas": 6897,
      "Ġsuggested": 6898,
      "Ġbloom": 6899,
      "ether": 6900,
      "ĠWis": 6901,
      "tee": 6902,
      "erei": 6903,
      "Ġfee": 6904,
      "Ġbutter": 6905,
      "bled": 6906,
      "bling": 6907,
      "Ne": 6908,
      "Ġtab": 6909,
      "rels": 6910,
      "Ġpowers": 6911,
      "ilen": 6912,
      "ĠWo": 6913,
      "ĠStore": 6914,
      "ĠProb": 6915,
      "ĠMaine": 6916,
      "Ġchairman": 6917,
      "Ġbann": 6918,
      "ilton": 6919,
      "otic": 6920,
      "ĠPER": 6921,
      "usetts": 6922,
      "Ġroll": 6923,
      "ĠRece": 6924,
      "Ġapice": 6925,
      "Ġmoins": 6926,
      "ky": 6927,
      "ĠFru": 6928,
      "Ġanx": 6929,
      "ocy": 6930,
      "iores": 6931,
      "Ġschon": 6932,
      "Ġconstruction": 6933,
      "Ġvillage": 6934,
      "Ġfow": 6935,
      "ĠmÃ¼r": 6936,
      "Ġimmense": 6937,
      "Ġbraun": 6938,
      "ĠSheriff": 6939,
      "ĠRoosevelt": 6940,
      "Ġcures": 6941,
      "icn": 6942,
      "iem": 6943,
      "ĠLower": 6944,
      "ĠRos": 6945,
      "temp": 6946,
      "ANK": 6947,
      "Ġearnest": 6948,
      "lington": 6949,
      "Ġtiss": 6950,
      "Ġalg": 6951,
      "Ġdogs": 6952,
      "Ġgenre": 6953,
      "Ġsecur": 6954,
      "Ġescape": 6955,
      "ĠBritain": 6956,
      "ĠSurvey": 6957,
      "ĠWalter": 6958,
      "Ġnervous": 6959,
      "TR": 6960,
      "Ġtlie": 6961,
      "Ġnad": 6962,
      "Ġimmediate": 6963,
      "Ġattached": 6964,
      "Ġdivided": 6965,
      "rin": 6966,
      "Ġbc": 6967,
      "Ġfond": 6968,
      "estone": 6969,
      "arts": 6970,
      "olle": 6971,
      "anning": 6972,
      "Ġadvanced": 6973,
      "Ġflesh": 6974,
      "Ġais": 6975,
      "ĠfÃ¼": 6976,
      "Ġgum": 6977,
      "chte": 6978,
      "Ġvast": 6979,
      "inese": 6980,
      "fcp": 6981,
      "Ġtrois": 6982,
      "Ġadmitted": 6983,
      "Ġgleich": 6984,
      "Ġwurde": 6985,
      "34": 6986,
      "IAM": 6987,
      "ĠDoug": 6988,
      "racted": 6989,
      "ĠChas": 6990,
      "ĠArten": 6991,
      "Ġconstant": 6992,
      "Ġbasis": 6993,
      "ommod": 6994,
      "Ġcarrying": 6995,
      "Ġcircumstances": 6996,
      "Ġoon": 6997,
      "ĠTot": 6998,
      "ĠAB": 6999,
      "Ġate": 7000,
      "Ġvii": 7001,
      "Ġtwice": 7002,
      "Ġcompared": 7003,
      "ĠHerr": 7004,
      "ĠTerritory": 7005,
      "Ġfairly": 7006,
      "Ġfailure": 7007,
      "NER": 7008,
      "Ġcet": 7009,
      "Ġff": 7010,
      "ĠAG": 7011,
      "utch": 7012,
      "rae": 7013,
      "ĠES": 7014,
      "Ġbenz": 7015,
      "Ġinformed": 7016,
      "Ġremarks": 7017,
      "Ġlangu": 7018,
      "viron": 7019,
      "Ġihrer": 7020,
      "Ġdemonstr": 7021,
      "AA": 7022,
      "Ġsupre": 7023,
      "Ġtimber": 7024,
      "Ġminor": 7025,
      "Ġ1888": 7026,
      "Ġsatisfactory": 7027,
      "âĻ¦âĻ¦âĻ¦âĻ¦": 7028,
      "ĠBuffalo": 7029,
      "Ġ_": 7030,
      "Ġsed": 7031,
      "Ġrear": 7032,
      "Ã¶t": 7033,
      "ĠMarine": 7034,
      "ĠAfrican": 7035,
      "aur": 7036,
      "pla": 7037,
      "Ġfix": 7038,
      "abama": 7039,
      "Ġplans": 7040,
      "bee": 7041,
      "Ġgrant": 7042,
      "Ġdecor": 7043,
      "Ġclasses": 7044,
      "Ġprivile": 7045,
      "Ġwet": 7046,
      "Ġdwell": 7047,
      "ĠAv": 7048,
      "ĠAst": 7049,
      "ĠLind": 7050,
      "ifd": 7051,
      "Ġconference": 7052,
      "Ġshore": 7053,
      "ĠPlants": 7054,
      "ĠMichigan": 7055,
      "Ġfertil": 7056,
      "Ġfragments": 7057,
      "Ġadministration": 7058,
      "quarters": 7059,
      "ĠTick": 7060,
      "ĠGart": 7061,
      "ucht": 7062,
      "aho": 7063,
      "Ġpassengers": 7064,
      "Ġrelig": 7065,
      "Ġlooks": 7066,
      "Ġconducted": 7067,
      "fu": 7068,
      "jo": 7069,
      "met": 7070,
      "Ġsong": 7071,
      "ĠVict": 7072,
      "Ġconsists": 7073,
      "Ġinstit": 7074,
      "Ġfruits": 7075,
      "Ġcel": 7076,
      "Ġganz": 7077,
      "Ġdella": 7078,
      "ĠRay": 7079,
      "Ġiii": 7080,
      "ffee": 7081,
      "ccine": 7082,
      "Ġgenera": 7083,
      "Ġfoliage": 7084,
      "Ġmerely": 7085,
      "88": 7086,
      "Sl": 7087,
      "blo": 7088,
      "mission": 7089,
      "ĠSic": 7090,
      "ĠDun": 7091,
      "Ġshop": 7092,
      "Ġnoticed": 7093,
      "ĠweiÃŁ": 7094,
      "Ġabdom": 7095,
      "Ġ59": 7096,
      "Ġ--": 7097,
      "Ġskull": 7098,
      "Ġleaders": 7099,
      "Ġworthy": 7100,
      "Ġwindow": 7101,
      "Ġprosper": 7102,
      "Mrs": 7103,
      "big": 7104,
      "Ġting": 7105,
      "eri": 7106,
      "Ġef": 7107,
      "ĠMason": 7108,
      "ĠkÃ¶nnen": 7109,
      "Ġlik": 7110,
      "Ġ=,": 7111,
      "ĠDak": 7112,
      "ĠLot": 7113,
      "apers": 7114,
      "Ġ1850": 7115,
      "onders": 7116,
      "Ġ:,": 7117,
      "Ġaffe": 7118,
      "ĠBorsten": 7119,
      "Ġsource": 7120,
      "ĠCR": 7121,
      "ĠPop": 7122,
      "Ġforg": 7123,
      "Ġexchange": 7124,
      "Ġneeds": 7125,
      "ĠVari": 7126,
      "Ã©n": 7127,
      "keep": 7128,
      "rible": 7129,
      "Ġexperiments": 7130,
      "Ġauthorities": 7131,
      "cit": 7132,
      "ror": 7133,
      "aton": 7134,
      "icles": 7135,
      "ĠMi": 7136,
      "utation": 7137,
      "ĠLight": 7138,
      "ERY": 7139,
      "Ġouter": 7140,
      "Ġgrou": 7141,
      "Ġapproved": 7142,
      "Ġsuitable": 7143,
      "Ġtc": 7144,
      "rem": 7145,
      "asp": 7146,
      "ĠLat": 7147,
      "Ġance": 7148,
      "opes": 7149,
      "aware": 7150,
      "ĠSupp": 7151,
      "Ġcomparative": 7152,
      "Ġconclusion": 7153,
      "'\"": 7154,
      "Ġcd": 7155,
      "Ġcam": 7156,
      "Ġey": 7157,
      "ĠAriz": 7158,
      "Ġul": 7159,
      "ĠDIS": 7160,
      "ĠGir": 7161,
      "ĠRad": 7162,
      "Ġjaw": 7163,
      "aph": 7164,
      "Ġminister": 7165,
      "Ġvoted": 7166,
      "ĠMassach": 7167,
      "Ġbotan": 7168,
      "ners": 7169,
      "Ġinten": 7170,
      "ĠOak": 7171,
      "ĠeS": 7172,
      "ĠDra": 7173,
      "ĠNich": 7174,
      "Ġconce": 7175,
      "Ġdesirable": 7176,
      "Ġbreed": 7177,
      "Ġorganized": 7178,
      "Ġbrain": 7179,
      "Ġpractical": 7180,
      "Ġrounded": 7181,
      "Ġtypical": 7182,
      "hall": 7183,
      "Ġog": 7184,
      "Ġgi": 7185,
      "ĠMO": 7186,
      "ĠDar": 7187,
      "Ġforced": 7188,
      "Ġ78": 7189,
      "Ġliver": 7190,
      "Ġaffect": 7191,
      "Ġprize": 7192,
      "Ġrespond": 7193,
      "ĠHoward": 7194,
      "Ġattendance": 7195,
      "Ġencou": 7196,
      "Ġrecognized": 7197,
      "Ġinhabit": 7198,
      "Ac": 7199,
      "ĠlS": 7200,
      "rang": 7201,
      "ibe": 7202,
      "Ġcontained": 7203,
      "icks": 7204,
      "Ġsteel": 7205,
      "Ġbelonging": 7206,
      "Ġtransport": 7207,
      "ym": 7208,
      "ĠSM": 7209,
      "Ġtween": 7210,
      "Ġ73": 7211,
      "ĠArthur": 7212,
      "Ġacts": 7213,
      "Ġdifferences": 7214,
      "Ġcutting": 7215,
      "Ġsusp": 7216,
      "Ġpossibly": 7217,
      "tic": 7218,
      "ĠCure": 7219,
      "Ġrules": 7220,
      "Ġexclus": 7221,
      "Ġspoke": 7222,
      "Ġregister": 7223,
      "Ġconduct": 7224,
      "Ġscarcely": 7225,
      "ĠLincoln": 7226,
      "If": 7227,
      "TT": 7228,
      "bn": 7229,
      "lain": 7230,
      "ĠPI": 7231,
      "ONS": 7232,
      "ĠAlabama": 7233,
      "Ġbush": 7234,
      "ĠXIII": 7235,
      "Ġinclude": 7236,
      "CL": 7237,
      "Ġurg": 7238,
      "Ġpine": 7239,
      "anch": 7240,
      "ĠPub": 7241,
      "ĠFried": 7242,
      "Ġ67": 7243,
      "Ġparent": 7244,
      "Ġchest": 7245,
      "ĠMinne": 7246,
      "Ġtickets": 7247,
      "ĠInstitute": 7248,
      "}'": 7249,
      "ĠmÃ¼": 7250,
      "lau": 7251,
      "ufs": 7252,
      "Ġforming": 7253,
      "Ġassess": 7254,
      "ĠCarl": 7255,
      "ĠÃ¼br": 7256,
      "Ġfunds": 7257,
      "ael": 7258,
      "Ġtne": 7259,
      "nde": 7260,
      "Ġfan": 7261,
      "ĠIron": 7262,
      "uries": 7263,
      "ctures": 7264,
      "unft": 7265,
      "Ġruf": 7266,
      "attered": 7267,
      "Ġconfined": 7268,
      "gh": 7269,
      "Ġcough": 7270,
      "iser": 7271,
      "ĠPflanzen": 7272,
      "orton": 7273,
      "Ġdesp": 7274,
      "ĠprÃ©c": 7275,
      "Ġintended": 7276,
      "Ġpleased": 7277,
      "Ġrepresentative": 7278,
      "Ġreasonable": 7279,
      "Ġprinciples": 7280,
      "Ġseparated": 7281,
      "Ġabsolutely": 7282,
      "MS": 7283,
      "NA": 7284,
      "Ġdy": 7285,
      "ĠBurn": 7286,
      "ĠFall": 7287,
      "arson": 7288,
      "Ġ76": 7289,
      "Ġeleg": 7290,
      "rÃ¼": 7291,
      "isms": 7292,
      "ĠTro": 7293,
      "ĠField": 7294,
      "ĠLands": 7295,
      "ĠJos": 7296,
      "Ġsaf": 7297,
      "ĠChinese": 7298,
      "Ġcloth": 7299,
      "Ġcommence": 7300,
      "Ġmarg": 7301,
      "Ġexhibit": 7302,
      "ĠGolden": 7303,
      "Ġdangerous": 7304,
      "Ġmethods": 7305,
      "Ġpermanent": 7306,
      "Ġundersigned": 7307,
      "oned": 7308,
      "Ġbay": 7309,
      "Ġhomes": 7310,
      "Ġemin": 7311,
      "ĠWy": 7312,
      "ĠGall": 7313,
      "ĠGOOD": 7314,
      "essen": 7315,
      "Ġremained": 7316,
      "Ġ1873": 7317,
      "ĠCHAR": 7318,
      "IET": 7319,
      "ĠSorten": 7320,
      "Ġstrange": 7321,
      "berry": 7322,
      "ĠSeed": 7323,
      "ĠCOUN": 7324,
      "Ġconsisting": 7325,
      "ĠThrough": 7326,
      "Fr": 7327,
      "furt": 7328,
      "western": 7329,
      "Ġsit": 7330,
      "Ġoa": 7331,
      "rote": 7332,
      "ĠBRO": 7333,
      "ĠPE": 7334,
      "ĠPAR": 7335,
      "ĠWinter": 7336,
      "olia": 7337,
      "Ġviz": 7338,
      "eston": 7339,
      "Ġ@.": 7340,
      "Ġmedi": 7341,
      "Ġvisitors": 7342,
      "ĠCOMM": 7343,
      "Ġfavorable": 7344,
      "Ġauss": 7345,
      "Ġhut": 7346,
      "ĠHoll": 7347,
      "ĠHER": 7348,
      "ĠNatur": 7349,
      "uments": 7350,
      "ĠiÃŁ": 7351,
      "Ġfeather": 7352,
      "Ġprefer": 7353,
      "venth": 7354,
      "ĠRoberts": 7355,
      "Ġintellig": 7356,
      "ĠBryan": 7357,
      "Ġtendency": 7358,
      "rod": 7359,
      "ĠMax": 7360,
      "Ġhes": 7361,
      "Ġdelle": 7362,
      "Ġcanal": 7363,
      "Ġattorney": 7364,
      "Ġtravel": 7365,
      "Ġinside": 7366,
      "Ġfunction": 7367,
      "Ġrepeated": 7368,
      "back": 7369,
      "rb": 7370,
      "ĠIre": 7371,
      "ĠCas": 7372,
      "ĠBig": 7373,
      "ĠDiv": 7374,
      "ĠHaupt": 7375,
      "third": 7376,
      "Ġfeine": 7377,
      "ĠChamber": 7378,
      "Ġreply": 7379,
      "Ġclosing": 7380,
      "Ġexped": 7381,
      "Ġpostpaid": 7382,
      "ĠÃ©tÃ©": 7383,
      "Ġdia": 7384,
      "Ġmol": 7385,
      "ĠCash": 7386,
      "rau": 7387,
      "erein": 7388,
      "Ġ85": 7389,
      "ORS": 7390,
      "Ġbrun": 7391,
      "ĠCOL": 7392,
      "ĠLouisiana": 7393,
      "Ġfrequent": 7394,
      "Ġliberal": 7395,
      "Ġquelques": 7396,
      "85": 7397,
      "iest": 7398,
      "Ġgain": 7399,
      "Ġvie": 7400,
      "Ġunt": 7401,
      "Ġshru": 7402,
      "âĢŀ": 7403,
      "ĠStation": 7404,
      "Ġmines": 7405,
      "ĠSoci": 7406,
      "Ġ1885": 7407,
      "ĠReport": 7408,
      "ammlung": 7409,
      "ĠEuropean": 7410,
      "ĠCommissioner": 7411,
      "Ġstream": 7412,
      "lter": 7413,
      "zu": 7414,
      "iny": 7415,
      "Ġcher": 7416,
      "Ġexperien": 7417,
      "Ġdegrees": 7418,
      "ĠDelaware": 7419,
      "oI": 7420,
      "wa": 7421,
      "xim": 7422,
      "Ġrom": 7423,
      "Ġmt": 7424,
      "ĠmÃ¤": 7425,
      "abeth": 7426,
      "Ġ52": 7427,
      "Ġplaintiff": 7428,
      "ĠProc": 7429,
      "Ġgrace": 7430,
      "Ġsym": 7431,
      "ĠEditor": 7432,
      "Ġcapacity": 7433,
      "Ġcouple": 7434,
      "ĠCommissioners": 7435,
      "ĠHaven": 7436,
      "Ġenthus": 7437,
      "ĠTarsus": 7438,
      "NG": 7439,
      "hau": 7440,
      "ios": 7441,
      "lv": 7442,
      "enb": 7443,
      "Ġsite": 7444,
      "Ġbare": 7445,
      "ĠDick": 7446,
      "uls": 7447,
      "Ġcoat": 7448,
      "ĠGeol": 7449,
      "obile": 7450,
      "ĠConf": 7451,
      "Ġnorthwest": 7452,
      "Ġhabits": 7453,
      "Ġtestimony": 7454,
      "Ġprinciple": 7455,
      "ĠcÃ´t": 7456,
      "Ġhist": 7457,
      "ĠSwe": 7458,
      "Ġnave": 7459,
      "Ġtoba": 7460,
      "ĠOb": 7461,
      "ĠNash": 7462,
      "INO": 7463,
      "Ġcontinu": 7464,
      "ACK": 7465,
      "**": 7466,
      "IB": 7467,
      "Ãľ": 7468,
      "Ġforces": 7469,
      "usammen": 7470,
      "ĠConstitution": 7471,
      "ĠMeet": 7472,
      "Ġfreely": 7473,
      "Ġpastor": 7474,
      "Ġstrongly": 7475,
      "ĠTwenty": 7476,
      "Ġviews": 7477,
      "Ġbottles": 7478,
      "Ġclearly": 7479,
      "Ġindicate": 7480,
      "olesale": 7481,
      "Ġbirth": 7482,
      "!\"": 7483,
      "night": 7484,
      "vens": 7485,
      "reck": 7486,
      "Ġbien": 7487,
      "ĠCath": 7488,
      "ĠMod": 7489,
      "ĠNos": 7490,
      "ldom": 7491,
      "odes": 7492,
      "ĠStat": 7493,
      "aufe": 7494,
      "Ġtrunk": 7495,
      "Ġstead": 7496,
      "ĠFlower": 7497,
      "ĠFreder": 7498,
      "ĠPittsburg": 7499,
      "RIC": 7500,
      "UBL": 7501,
      "Â©": 7502,
      "Ġbin": 7503,
      "Ġcn": 7504,
      "ĠSat": 7505,
      "alten": 7506,
      "rose": 7507,
      "Ġthai": 7508,
      "ĠOs": 7509,
      "Ġgather": 7510,
      "ĠMb": 7511,
      "ĠProp": 7512,
      "Ġbread": 7513,
      "Ġcandidates": 7514,
      "Ġevidently": 7515,
      "ĠMassachusetts": 7516,
      "xx": 7517,
      "owed": 7518,
      "Ġorange": 7519,
      "Ġaudience": 7520,
      "Ġassort": 7521,
      "Ġ1875": 7522,
      "Ġ1889": 7523,
      "folk": 7524,
      "Ġextremely": 7525,
      "ball": 7526,
      "Ġents": 7527,
      "Ġsul": 7528,
      "Ġcig": 7529,
      "Ġfann": 7530,
      "ĠFIR": 7531,
      "iller": 7532,
      "unte": 7533,
      "emed": 7534,
      "aub": 7535,
      "Ġdoch": 7536,
      "Ġ72": 7537,
      "ugs": 7538,
      "ĠZu": 7539,
      "ĠItal": 7540,
      "Ġequally": 7541,
      "ĠFranklin": 7542,
      "Ġcelebrated": 7543,
      "mitte": 7544,
      "Ġom": 7545,
      "Ġham": 7546,
      "ciate": 7547,
      "Ġfait": 7548,
      "Ġmilieu": 7549,
      "Ġcontinuous": 7550,
      "ĠGartenarch": 7551,
      "Ġsurround": 7552,
      "Ġeducation": 7553,
      "Ġfinancial": 7554,
      "uy": 7555,
      "Ġted": 7556,
      "Ġpt": 7557,
      "Ġpoll": 7558,
      "Ġresembl": 7559,
      "ctic": 7560,
      "ĠWE": 7561,
      "Ġsust": 7562,
      "ruck": 7563,
      "Ġmostly": 7564,
      "ĠNotes": 7565,
      "Ġelsewhere": 7566,
      "Ġcertific": 7567,
      "Ġexerc": 7568,
      "Ġbrilliant": 7569,
      "Ġtobacco": 7570,
      "Ġsher": 7571,
      "amer": 7572,
      "ĠFine": 7573,
      "Ġans": 7574,
      "Ġdell": 7575,
      "ĠUp": 7576,
      "Ġconsult": 7577,
      "Ġscale": 7578,
      "Ġconstantly": 7579,
      "Ġgovernor": 7580,
      "Ġsettlement": 7581,
      "Ġoblig": 7582,
      "Ġposterior": 7583,
      "bem": 7584,
      "Ġsou": 7585,
      "iration": 7586,
      "oster": 7587,
      "Ġenorm": 7588,
      "ĠZeit": 7589,
      "Ġmining": 7590,
      "Ġcalling": 7591,
      "Ġstrugg": 7592,
      "Ġ1992": 7593,
      "Ġfalling": 7594,
      "ĠWASHINGTON": 7595,
      "Hs": 7596,
      "fle": 7597,
      "long": 7598,
      "rg": 7599,
      "zed": 7600,
      "Ġhit": 7601,
      "ĠSes": 7602,
      "ĠIch": 7603,
      "ĠMic": 7604,
      "irts": 7605,
      "Ġweit": 7606,
      "Ġderived": 7607,
      "Ġprovisions": 7608,
      "Ġsuffered": 7609,
      "Ġ1996": 7610,
      "rÃ©": 7611,
      "Ġfus": 7612,
      "ĠTW": 7613,
      "ĠLodge": 7614,
      "Ġinterior": 7615,
      "URN": 7616,
      "altung": 7617,
      "boro": 7618,
      "ĠQueen": 7619,
      "Ġtbs": 7620,
      "Ġcard": 7621,
      "Ġnatives": 7622,
      "ĠTon": 7623,
      "ĠWald": 7624,
      "unate": 7625,
      "ĠRa": 7626,
      "ĠVice": 7627,
      "Ġmanager": 7628,
      "Ġreprodu": 7629,
      "ĠArm": 7630,
      "ĠStep": 7631,
      "ĠGoods": 7632,
      "Ġpenn": 7633,
      "ĠMS": 7634,
      "Ġ150": 7635,
      "ĠRet": 7636,
      "aving": 7637,
      "Ġmoist": 7638,
      "Ġelong": 7639,
      "ĠIrish": 7640,
      "garten": 7641,
      "aro": 7642,
      "icher": 7643,
      "uta": 7644,
      "Ġshoulder": 7645,
      "ĠSTE": 7646,
      "ĠbaÃŁ": 7647,
      "Ġfallen": 7648,
      "Ġemploye": 7649,
      "Ġ).": 7650,
      "Ġwalls": 7651,
      "Ġcrown": 7652,
      "Ġdit": 7653,
      "ulis": 7654,
      "anton": 7655,
      "anned": 7656,
      "aires": 7657,
      "Ġnomination": 7658,
      "ĠTribune": 7659,
      "kers": 7660,
      "ĠIF": 7661,
      "Ġbears": 7662,
      "ĠHave": 7663,
      "ĠHistory": 7664,
      "ĠWind": 7665,
      "amt": 7666,
      "ĠGran": 7667,
      "Ġvest": 7668,
      "ĠJAMES": 7669,
      "Ġsubt": 7670,
      "opter": 7671,
      "ĠChild": 7672,
      "ĠConst": 7673,
      "jected": 7674,
      "Ġinvestigation": 7675,
      "ĠPedipal": 7676,
      "vin": 7677,
      "Ġbased": 7678,
      "ani": 7679,
      "ĠTable": 7680,
      "ĠHills": 7681,
      "ĠGEN": 7682,
      "febern": 7683,
      "Ġmeetings": 7684,
      "Ġ1907": 7685,
      "Ġcitizen": 7686,
      "ĠArizona": 7687,
      "ĠHum": 7688,
      "quet": 7689,
      "Ġkill": 7690,
      "Ġclothing": 7691,
      "annah": 7692,
      "Ġtroubles": 7693,
      "cription": 7694,
      "Ġmeasures": 7695,
      "Ġassociated": 7696,
      "ĠElect": 7697,
      "Os": 7698,
      "Ġbent": 7699,
      "Ġwool": 7700,
      "Ġdata": 7701,
      "Ġmamm": 7702,
      "ĠTas": 7703,
      "ĠCotton": 7704,
      "ĠLA": 7705,
      "Ġweigh": 7706,
      "ĠAnze": 7707,
      "formation": 7708,
      "REE": 7709,
      "ĠIdaho": 7710,
      "Ġteachers": 7711,
      "lS": 7712,
      "ĠDur": 7713,
      "ĠVo": 7714,
      "hÃ¤lt": 7715,
      "icer": 7716,
      "Ġgur": 7717,
      "Ġgathered": 7718,
      "ĠAvenue": 7719,
      "ĠPur": 7720,
      "Ġami": 7721,
      "Ġmarine": 7722,
      "Ġconfidence": 7723,
      "Ġquarters": 7724,
      "hlt": 7725,
      "mir": 7726,
      "rst": 7727,
      "Ġlung": 7728,
      "ĠhÃ¶": 7729,
      "ĠSle": 7730,
      "otion": 7731,
      "Ġrost": 7732,
      "weg": 7733,
      "ĠCook": 7734,
      "Ġdidn": 7735,
      "Ġsnakes": 7736,
      "ĠMontana": 7737,
      "Ġcorporation": 7738,
      "Ġdischar": 7739,
      "iit": 7740,
      "ois": 7741,
      "Ġfill": 7742,
      "ĠeX": 7743,
      "Ġbee": 7744,
      "sters": 7745,
      "Ġseldom": 7746,
      "aked": 7747,
      "Ġherself": 7748,
      "Ġmemory": 7749,
      "ĠBros": 7750,
      "ĠgroÃŁen": 7751,
      "Ġstocks": 7752,
      "Ġbesides": 7753,
      "Ġdefend": 7754,
      "Ġadvertis": 7755,
      "AE": 7756,
      "Ge": 7757,
      "Ġaur": 7758,
      "ĠFed": 7759,
      "acon": 7760,
      "Ġimag": 7761,
      "Ġgrade": 7762,
      "Ġifl": 7763,
      "Ġsupplied": 7764,
      "OUN": 7765,
      "Ġjohnson": 7766,
      "DR": 7767,
      "PL": 7768,
      "Ġsout": 7769,
      "Ġpou": 7770,
      "Ġpollen": 7771,
      "ĠBall": 7772,
      "seud": 7773,
      "ĠNATUR": 7774,
      "Ġstores": 7775,
      "ANCE": 7776,
      "ISH": 7777,
      "Ġaddressed": 7778,
      "ĠBlatt": 7779,
      "Ġpaying": 7780,
      "OLOG": 7781,
      "Ġstraw": 7782,
      "ĠPHIL": 7783,
      "ĠBroadway": 7784,
      "Ġhence": 7785,
      "gie": 7786,
      "Ġtal": 7787,
      "anth": 7788,
      "Ġinher": 7789,
      "Ġbell": 7790,
      "ĠMR": 7791,
      "Ã¤che": 7792,
      "Ġcommitted": 7793,
      "Ġ/,": 7794,
      "Ġpara": 7795,
      "Ġgrave": 7796,
      "Ġextend": 7797,
      "Ġevil": 7798,
      "IGHT": 7799,
      "ĠNorfolk": 7800,
      "Ġgranite": 7801,
      "ĠKentucky": 7802,
      "KE": 7803,
      "Ġpag": 7804,
      "Ġhun": 7805,
      "Ġelle": 7806,
      "othe": 7807,
      "ĠWon": 7808,
      "rac": 7809,
      "pton": 7810,
      "Ġ64": 7811,
      "acter": 7812,
      "Ġearlier": 7813,
      "Ġproducts": 7814,
      "ĠTele": 7815,
      "Ġincreasing": 7816,
      "Ġnecessity": 7817,
      "Ġutter": 7818,
      "Ġslowly": 7819,
      "ufe": 7820,
      "ader": 7821,
      "ĠLac": 7822,
      "Ġancient": 7823,
      "ĠStone": 7824,
      "Ġjoint": 7825,
      "Ġ88": 7826,
      "ssen": 7827,
      "ĠCole": 7828,
      "Ġ1905": 7829,
      "ĠHowever": 7830,
      "Ġdevoted": 7831,
      "cribed": 7832,
      "Ġert": 7833,
      "oration": 7834,
      "Ġhang": 7835,
      "ĠBAR": 7836,
      "imed": 7837,
      "Ġhero": 7838,
      "Ġauction": 7839,
      "LEY": 7840,
      "ĠMorgan": 7841,
      "Ġappointment": 7842,
      "Ġprimary": 7843,
      "Ġvigorous": 7844,
      "Ġbeneath": 7845,
      "ĠDakota": 7846,
      "ĠSem": 7847,
      "chie": 7848,
      "ĠRog": 7849,
      "Ġneur": 7850,
      "ĠVers": 7851,
      "ĠÂ©.": 7852,
      "Ġeinige": 7853,
      "ĠCoast": 7854,
      "Ġjustice": 7855,
      "Ġruns": 7856,
      "Ġcalcul": 7857,
      "Ġdispatch": 7858,
      "Ġwoods": 7859,
      "Ġmillions": 7860,
      "ĠRepublicans": 7861,
      "ĠSilver": 7862,
      "ĠExpress": 7863,
      "ĠAcademy": 7864,
      "dl": 7865,
      "rer": 7866,
      "enne": 7867,
      "Ġsnd": 7868,
      "orte": 7869,
      "ĠSing": 7870,
      "ĠCA": 7871,
      "ĠBit": 7872,
      "ĠGus": 7873,
      "ĠLine": 7874,
      "Ġframe": 7875,
      "Ġmedical": 7876,
      "Ġparticulars": 7877,
      "Ġimportance": 7878,
      "ĠMaryland": 7879,
      "Ġsatisfied": 7880,
      "otypus": 7881,
      "Ġvirtue": 7882,
      "half": 7883,
      "Ġwieder": 7884,
      "Ġful": 7885,
      "Ġgrey": 7886,
      "ĠDaily": 7887,
      "Ġhem": 7888,
      "ĠET": 7889,
      "ĠILL": 7890,
      "ĠBlue": 7891,
      "ĠRailway": 7892,
      "ĠDaniel": 7893,
      "ĠNelson": 7894,
      "66": 7895,
      "ients": 7896,
      "Ã§": 7897,
      "ithe": 7898,
      "itel": 7899,
      "Ġlose": 7900,
      "asant": 7901,
      "rog": 7902,
      "ĠIM": 7903,
      "ĠCough": 7904,
      "Ġ63": 7905,
      "URT": 7906,
      "Ġcentre": 7907,
      "Ġordin": 7908,
      "Ġexisting": 7909,
      "Ġintense": 7910,
      "Ot": 7911,
      "wen": 7912,
      "ĠTax": 7913,
      "ĠBran": 7914,
      "ĠBaker": 7915,
      "ilo": 7916,
      "irn": 7917,
      "ĠHunt": 7918,
      "imp": 7919,
      "ĠGaz": 7920,
      "phone": 7921,
      "ANY": 7922,
      "Ġremove": 7923,
      "Ġtruly": 7924,
      "Ġ1908": 7925,
      "Ġ1854": 7926,
      "Ġsalary": 7927,
      "Ġpressure": 7928,
      "Ġapparent": 7929,
      "ĠGermany": 7930,
      "Ġexecutive": 7931,
      "Ġdistributed": 7932,
      "ĠMadison": 7933,
      "Ġacquaint": 7934,
      "Ġarrangement": 7935,
      "Ġtreasurer": 7936,
      "Ġfalse": 7937,
      "Ġproblem": 7938,
      "yth": 7939,
      "err": 7940,
      "Ġpig": 7941,
      "Ġpige": 7942,
      "Ġmud": 7943,
      "Ġnavy": 7944,
      "Ġeu": 7945,
      "Ġstones": 7946,
      "Ã¼ber": 7947,
      "Ġpartie": 7948,
      "Ġrecon": 7949,
      "Ġfields": 7950,
      "Ġdeutlich": 7951,
      "GR": 7952,
      "rations": 7953,
      "rett": 7954,
      "Ġwagon": 7955,
      "ischer": 7956,
      "itÃ¤t": 7957,
      "Ġdei": 7958,
      "Ġence": 7959,
      "Ġdoctor": 7960,
      "ishment": 7961,
      "Ġclos": 7962,
      "Ġhereto": 7963,
      "Ġreceiving": 7964,
      "Ġolder": 7965,
      "Ġbreeds": 7966,
      "Ġpropriet": 7967,
      "OUSE": 7968,
      "cor": 7969,
      "Ġaward": 7970,
      "raft": 7971,
      "Ġbride": 7972,
      "Ġproposition": 7973,
      "Ġobsc": 7974,
      "Ġconcerning": 7975,
      "gal": 7976,
      "Ġbil": 7977,
      "orge": 7978,
      "Ġdan": 7979,
      "Ġhu": 7980,
      "Ġsem": 7981,
      "istics": 7982,
      "year": 7983,
      "Ġlimbs": 7984,
      "Ġregarding": 7985,
      "Ġcerem": 7986,
      "fast": 7987,
      "enf": 7988,
      "Ġworn": 7989,
      "ori": 7990,
      "Ġpc": 7991,
      "icular": 7992,
      "ĠOrange": 7993,
      "ĠCreek": 7994,
      "ĠLiter": 7995,
      "ĠEmp": 7996,
      "Ġwash": 7997,
      "Ġenemy": 7998,
      "ĠCox": 7999,
      "Ġconstit": 8000,
      "ĠRese": 8001,
      "Ġrailroads": 8002,
      "Ġmountains": 8003,
      "Ġassortment": 8004,
      "Sp": 8005,
      "Ġoct": 8006,
      "ĠOIL": 8007,
      "ĠJew": 8008,
      "Ġjack": 8009,
      "Ġmoving": 8010,
      "ĠBrad": 8011,
      "Ġsuperintendent": 8012,
      "Ġprofit": 8013,
      "Ġpreviously": 8014,
      "Ġdealers": 8015,
      "Ġabundance": 8016,
      "ĠMinneapolis": 8017,
      "bster": 8018,
      "hm": 8019,
      "Ġpel": 8020,
      "Ġdressed": 8021,
      "Ġgardens": 8022,
      "ĠMs": 8023,
      "Ã¤l": 8024,
      "rows": 8025,
      "ĠOrder": 8026,
      "Ġinsurance": 8027,
      "ĠSpec": 8028,
      "ĠApply": 8029,
      "Ġexhibited": 8030,
      "Ġenergy": 8031,
      "BY": 8032,
      "Ġtorn": 8033,
      "llt": 8034,
      "ĠSJ": 8035,
      "ĠSug": 8036,
      "Ġgets": 8037,
      "quent": 8038,
      "apr": 8039,
      "Ġ57": 8040,
      "epen": 8041,
      "Ġpermit": 8042,
      "ĠÃ¨": 8043,
      "Ġcolon": 8044,
      "ĠLouisville": 8045,
      "Ġfiep": 8046,
      "Ġdrug": 8047,
      "Ġpicture": 8048,
      "ĠRussian": 8049,
      "ĠElizabeth": 8050,
      "bens": 8051,
      "low": 8052,
      "zing": 8053,
      "Ġbild": 8054,
      "Ġnort": 8055,
      "ĠWit": 8056,
      "oda": 8057,
      "Ġyeux": 8058,
      "Ġraise": 8059,
      "Ġcoccine": 8060,
      "Ġappeal": 8061,
      "Ġapproach": 8062,
      "Ġqualities": 8063,
      "Ġâ": 8064,
      "Ġses": 8065,
      "orum": 8066,
      "ĠDam": 8067,
      "Ġleague": 8068,
      "Ġzwischen": 8069,
      "ATH": 8070,
      "Ġcoral": 8071,
      "ursery": 8072,
      "Ġowned": 8073,
      "Ġ1872": 8074,
      "Ġausge": 8075,
      "Ġauthorized": 8076,
      "Ġmoral": 8077,
      "ĠMexican": 8078,
      "Ġperformed": 8079,
      "ĠAlexander": 8080,
      "light": 8081,
      "Ġtub": 8082,
      "Ġtina": 8083,
      "inations": 8084,
      "Ġei": 8085,
      "ĠCer": 8086,
      "ĠBild": 8087,
      "irty": 8088,
      "ĠHabit": 8089,
      "Ġactually": 8090,
      "gged": 8091,
      "ĠTeil": 8092,
      "Ġaccounts": 8093,
      "burn": 8094,
      "fet": 8095,
      "Ġacknow": 8096,
      "Ġhung": 8097,
      "ĠSac": 8098,
      "ĠCult": 8099,
      "ĠAID": 8100,
      "omy": 8101,
      "ando": 8102,
      "Ġ96": 8103,
      "ĠBefore": 8104,
      "shire": 8105,
      "Ġhyp": 8106,
      "Ã¶rm": 8107,
      "Ġmorph": 8108,
      "ĠDenver": 8109,
      "otype": 8110,
      "zt": 8111,
      "igkeit": 8112,
      "Ã¼ng": 8113,
      "Ġmeat": 8114,
      "Ġpercent": 8115,
      "Ġfault": 8116,
      "Ġbiefer": 8117,
      "Ġsubmitted": 8118,
      "annel": 8119,
      "ACT": 8120,
      "Ġpreparation": 8121,
      "Ġmoderate": 8122,
      "AU": 8123,
      "oit": 8124,
      "Ġscientific": 8125,
      "Ġlun": 8126,
      "ĠAV": 8127,
      "adow": 8128,
      "Ġspending": 8129,
      "Ġ77": 8130,
      "Ġcommenced": 8131,
      "Ġpoils": 8132,
      "Ġremaining": 8133,
      "attung": 8134,
      "Ġseriously": 8135,
      "ĠAgain": 8136,
      "Ġdriven": 8137,
      "AKE": 8138,
      "Ġcrystals": 8139,
      "Oh": 8140,
      "mington": 8141,
      "oN": 8142,
      "Ġmatch": 8143,
      "ĠTar": 8144,
      "ĠCase": 8145,
      "uren": 8146,
      "iler": 8147,
      "ĠWay": 8148,
      "ĠIntern": 8149,
      "Ġcolumn": 8150,
      "Ġcrime": 8151,
      "Ġrespectfully": 8152,
      "ĠIslands": 8153,
      "Ġdruggists": 8154,
      "Ġvessels": 8155,
      "ohn": 8156,
      "ede": 8157,
      "Ġds": 8158,
      "ĠlÃ¤": 8159,
      "ĠHug": 8160,
      "ĠWOR": 8161,
      "Ġrows": 8162,
      "feld": 8163,
      "Ġ71": 8164,
      "Ġ&.": 8165,
      "ENC": 8166,
      "Ġarrival": 8167,
      "Ġwidth": 8168,
      "ĠâĻ¦": 8169,
      "anim": 8170,
      "Ġlad": 8171,
      "ĠWisc": 8172,
      "ĠRy": 8173,
      "Ġrc": 8174,
      "ems": 8175,
      "Ġung": 8176,
      "Ġ54": 8177,
      "ENE": 8178,
      "Ġclimate": 8179,
      "Ġsolution": 8180,
      "Ġestablishment": 8181,
      "di": 8182,
      "Ã¯": 8183,
      "Ġbeiden": 8184,
      "ĠBru": 8185,
      "ĠRENT": 8186,
      "Ġcontemp": 8187,
      "Ã¤umen": 8188,
      "bei": 8189,
      "rieben": 8190,
      "Ġ1867": 8191,
      "Ġsteps": 8192,
      "Ġscience": 8193,
      "ja": 8194,
      "Ġaa": 8195,
      "Ġcoc": 8196,
      "Ġlion": 8197,
      "ĠSus": 8198,
      "idt": 8199,
      "ĠDn": 8200,
      "ĠEver": 8201,
      "istol": 8202,
      "ĠUpper": 8203,
      "bridge": 8204,
      "Ġelm": 8205,
      "Ġstudies": 8206,
      "Ġcomplex": 8207,
      "Ã¤tter": 8208,
      "Ġobservations": 8209,
      "Ġgradually": 8210,
      "Ġjudge": 8211,
      "Ġcrowded": 8212,
      "ĠLiber": 8213,
      "ĠUtah": 8214,
      "Ãĸ": 8215,
      "rell": 8216,
      "Ġfold": 8217,
      "ĠMis": 8218,
      "changed": 8219,
      "Ġrr": 8220,
      "Ġyer": 8221,
      "Ġalarum": 8222,
      "Ġentre": 8223,
      "Ġextending": 8224,
      "Ġsupplies": 8225,
      "Ġgrows": 8226,
      "Ġasking": 8227,
      "Ġnombre": 8228,
      "Ġtests": 8229,
      "ĠParker": 8230,
      "Ã¼nstler": 8231,
      "UC": 8232,
      "da": 8233,
      "fish": 8234,
      "mel": 8235,
      "ĠSew": 8236,
      "ĠPow": 8237,
      "Ġjour": 8238,
      "uster": 8239,
      "asser": 8240,
      "Ġerst": 8241,
      "Ġliable": 8242,
      "Ġslender": 8243,
      "Ġcounsel": 8244,
      "Ġassistance": 8245,
      "ĠGesch": 8246,
      "Ġcomplaint": 8247,
      "Ġresponsible": 8248,
      "Ht": 8249,
      "aud": 8250,
      "but": 8251,
      "Ġoer": 8252,
      "Ġbaf": 8253,
      "Ġlately": 8254,
      "ĠDise": 8255,
      "ĠEu": 8256,
      "ifts": 8257,
      "ifying": 8258,
      "Ġexem": 8259,
      "Ġamb": 8260,
      "Ġ'\"": 8261,
      "ertion": 8262,
      "INS": 8263,
      "OOO": 8264,
      "Ġvalues": 8265,
      "Ġportions": 8266,
      "Ġeffective": 8267,
      "Ġcrew": 8268,
      "Ġdiscussed": 8269,
      "mÃ¤ÃŁ": 8270,
      "Ġdeposits": 8271,
      "Ġinferior": 8272,
      "ĠWalker": 8273,
      "Ġtire": 8274,
      "Ġaqu": 8275,
      "inley": 8276,
      "orpor": 8277,
      "ĠDC": 8278,
      "Ġsemi": 8279,
      "ĠDev": 8280,
      "ĠMisses": 8281,
      "Ġcalc": 8282,
      "Ġcharacteristic": 8283,
      "Ġmasses": 8284,
      "ĠImport": 8285,
      "Ġislands": 8286,
      "ĠNOTICE": 8287,
      "NOT": 8288,
      "PS": 8289,
      "kl": 8290,
      "Ġsizes": 8291,
      "Ġwarn": 8292,
      "Ġwrote": 8293,
      "Ġpod": 8294,
      "Ġrevers": 8295,
      "ilst": 8296,
      "ĠRabenh": 8297,
      "Ġcountries": 8298,
      "Ġexceed": 8299,
      "Ġintention": 8300,
      "ADEL": 8301,
      "Ġ1994": 8302,
      "Ġlocality": 8303,
      "Ġwidely": 8304,
      "Ã©rieure": 8305,
      "99": 8306,
      "ban": 8307,
      "lO": 8308,
      "pool": 8309,
      "Ĥ¬": 8310,
      "Ġfou": 8311,
      "Ġposed": 8312,
      "uter": 8313,
      "iry": 8314,
      "ĠHealth": 8315,
      "Ġpear": 8316,
      "Ġeleven": 8317,
      "Ġcalls": 8318,
      "Ġsuppose": 8319,
      "Ġports": 8320,
      "Ġftnb": 8321,
      "OLD": 8322,
      "Ġinjury": 8323,
      "Ġreduction": 8324,
      "Ġindicated": 8325,
      "Ġanswered": 8326,
      "ĠBapt": 8327,
      "pers": 8328,
      "uh": 8329,
      "Â®": 8330,
      "Ġnos": 8331,
      "Ġtha": 8332,
      "idal": 8333,
      "ĠPas": 8334,
      "Ġante": 8335,
      "geme": 8336,
      "aints": 8337,
      "Ġ\"'": 8338,
      "ATES": 8339,
      "Ġconspic": 8340,
      "Ġscore": 8341,
      "ĠScar": 8342,
      "Ġevents": 8343,
      "Ġlegislature": 8344,
      "Ġdefinite": 8345,
      "Ġpetits": 8346,
      "ĠAustralia": 8347,
      "ĠChairman": 8348,
      "ĠResearch": 8349,
      "uar": 8350,
      "ener": 8351,
      "Ġfile": 8352,
      "ĠBrand": 8353,
      "otten": 8354,
      "ĠDou": 8355,
      "tere": 8356,
      "ĠFellow": 8357,
      "rix": 8358,
      "Ġ'''": 8359,
      "Ġassured": 8360,
      "Ġadvice": 8361,
      "atism": 8362,
      "Ġdefendant": 8363,
      "ynch": 8364,
      "Ġprotect": 8365,
      "Ġdelivery": 8366,
      "Ġcultivation": 8367,
      "Ġfamiliar": 8368,
      "ĠSuperintendent": 8369,
      "glied": 8370,
      "oni": 8371,
      "Ġfing": 8372,
      "ĠCurt": 8373,
      "lets": 8374,
      "ĠBat": 8375,
      "olen": 8376,
      "Ġ97": 8377,
      "ĠQU": 8378,
      "Ġdense": 8379,
      "Ġgrains": 8380,
      "ĠBrun": 8381,
      "Ġcurious": 8382,
      "Ġburd": 8383,
      "Ġantenn": 8384,
      "semble": 8385,
      "ĠBuilding": 8386,
      "ĠJefferson": 8387,
      "Ġgroups": 8388,
      "Ġtenn": 8389,
      "ĠNy": 8390,
      "Ġcompelled": 8391,
      "Ġenviron": 8392,
      "Ġ98": 8393,
      "Ġaccommod": 8394,
      "Ġcentury": 8395,
      "Ġ1871": 8396,
      "ĠObftbau": 8397,
      "Not": 8398,
      "Ġwound": 8399,
      "oren": 8400,
      "Ġdust": 8401,
      "roll": 8402,
      "roph": 8403,
      "Ġrept": 8404,
      "uled": 8405,
      "Ġprohib": 8406,
      "Ġaband": 8407,
      "ANG": 8408,
      "anna": 8409,
      "Ġrelated": 8410,
      "Ġshoes": 8411,
      "Ġmaterials": 8412,
      "You": 8413,
      "fang": 8414,
      "Ġpin": 8415,
      "omery": 8416,
      "ilia": 8417,
      "astr": 8418,
      "Ġacting": 8419,
      "---": 8420,
      "ĠExec": 8421,
      "Ġpatri": 8422,
      "Ġmeasured": 8423,
      "ĠLatham": 8424,
      "han": 8425,
      "inte": 8426,
      "Ġbout": 8427,
      "ĠStiel": 8428,
      "Ġchosen": 8429,
      "ibility": 8430,
      "onsin": 8431,
      "ĠOrgan": 8432,
      "Ġaffair": 8433,
      "Ġopposed": 8434,
      "Ġwelcome": 8435,
      "Ã¶nig": 8436,
      "ĠWILLIAM": 8437,
      "Ġpowder": 8438,
      "Ġverschied": 8439,
      "bung": 8440,
      "fÃ¤": 8441,
      "Ġain": 8442,
      "Ġoun": 8443,
      "Ġfart": 8444,
      "alus": 8445,
      "ĠCut": 8446,
      "Ġquoted": 8447,
      "Ġ79": 8448,
      "Ġpartly": 8449,
      "Ġcoarse": 8450,
      "acted": 8451,
      "Ġaccur": 8452,
      "Ġcapable": 8453,
      "ACE": 8454,
      "Ġthinks": 8455,
      "ophy": 8456,
      "Ġselect": 8457,
      "Ġventral": 8458,
      "CTION": 8459,
      "ĠAnzeigen": 8460,
      "lings": 8461,
      "nabel": 8462,
      "put": 8463,
      "Ġsought": 8464,
      "Ġpall": 8465,
      "ĠCette": 8466,
      "ĠBau": 8467,
      "imi": 8468,
      "ĠGin": 8469,
      "that": 8470,
      "pec": 8471,
      "perm": 8472,
      "Ġthank": 8473,
      "ĠÃĶ": 8474,
      "Ġspeaking": 8475,
      "inage": 8476,
      "ĠPage": 8477,
      "ĠHend": 8478,
      "ogether": 8479,
      "Ġeverywhere": 8480,
      "Ġpassenger": 8481,
      "Ġanti": 8482,
      "Ġembry": 8483,
      "ĠRussia": 8484,
      "Ġsucceeded": 8485,
      "Ġguaranteed": 8486,
      "closures": 8487,
      "OB": 8488,
      "Ġbatter": 8489,
      "ĠBishop": 8490,
      "ĠPine": 8491,
      "ĠHAR": 8492,
      "Ġnotified": 8493,
      "ensions": 8494,
      "Ġstripes": 8495,
      "Ġexamine": 8496,
      "ĠHamburg": 8497,
      "Ġshooting": 8498,
      "ĠPedipalpen": 8499,
      "vet": 8500,
      "Ġtent": 8501,
      "Ġtheory": 8502,
      "oric": 8503,
      "Ġdann": 8504,
      "ĠMills": 8505,
      "Ġrea": 8506,
      "ĠHor": 8507,
      "ĠHorn": 8508,
      "oly": 8509,
      "tha": 8510,
      "Ġunited": 8511,
      "Ġprosec": 8512,
      "INT": 8513,
      "Ġflat": 8514,
      "ĠStevens": 8515,
      "Ġtouch": 8516,
      "Ġanalysis": 8517,
      "ĠScience": 8518,
      "Ġimprovements": 8519,
      "67": 8520,
      "Ġbers": 8521,
      "Ġpect": 8522,
      "itr": 8523,
      "Ġmild": 8524,
      "ĠLI": 8525,
      "Ġneu": 8526,
      "Ġneue": 8527,
      "Ġchick": 8528,
      "Ġ92": 8529,
      "ĠSea": 8530,
      "Ġreception": 8531,
      "azine": 8532,
      "Ġgolden": 8533,
      "Ġdetermine": 8534,
      "ĠWheat": 8535,
      "Ġpictures": 8536,
      "utenant": 8537,
      "Ġphysician": 8538,
      "Ġcommercial": 8539,
      "Ġdelicate": 8540,
      "ĠService": 8541,
      "ĠKÃ¶rper": 8542,
      "ĠNATURAL": 8543,
      "Le": 8544,
      "nte": 8545,
      "Ġbte": 8546,
      "Ġcs": 8547,
      "Ġpages": 8548,
      "ira": 8549,
      "ĠHinter": 8550,
      "ĠFur": 8551,
      "ĠFive": 8552,
      "Ġrank": 8553,
      "cke": 8554,
      "Ġshock": 8555,
      "Ġships": 8556,
      "Ġjump": 8557,
      "ĠKenn": 8558,
      "Ġpreferred": 8559,
      "Ġhundreds": 8560,
      "Ġresolutions": 8561,
      "PHIA": 8562,
      "Ġniept": 8563,
      "Ġelytris": 8564,
      "ĠOBJ": 8565,
      "Te": 8566,
      "Ġtb": 8567,
      "iste": 8568,
      "ĠSet": 8569,
      "ĠSend": 8570,
      "idia": 8571,
      "oled": 8572,
      "Ġconvers": 8573,
      "ĠVon": 8574,
      "Ġnovel": 8575,
      "licted": 8576,
      "Ġpurple": 8577,
      "Ġproduct": 8578,
      "Ġputting": 8579,
      "Ġhabe": 8580,
      "Ġ1856": 8581,
      "Ġoccurrence": 8582,
      "ĠHamilton": 8583,
      "cfen": 8584,
      "Ġhoney": 8585,
      "Ġgrew": 8586,
      "Ġbep": 8587,
      "Ġchamp": 8588,
      "Ġjur": 8589,
      "Ġdoc": 8590,
      "Ġelement": 8591,
      "Ã¨ve": 8592,
      "affer": 8593,
      "Ġabsent": 8594,
      "gypt": 8595,
      "Ġrouge": 8596,
      "Ġcultivated": 8597,
      "Ġcommunication": 8598,
      "Ġeighteen": 8599,
      "ĠUeber": 8600,
      "Ġlanguage": 8601,
      "01": 8602,
      "200": 8603,
      "SC": 8604,
      "car": 8605,
      "lst": 8606,
      "rad": 8607,
      "uI": 8608,
      "oner": 8609,
      "Ġbau": 8610,
      "atte": 8611,
      "Ġbeat": 8612,
      "ĠMamm": 8613,
      "Ġuf": 8614,
      "ragen": 8615,
      "Ġash": 8616,
      "Ġseiner": 8617,
      "osph": 8618,
      "antes": 8619,
      "Ġ51": 8620,
      "Ġyouth": 8621,
      "Ġ::": 8622,
      "Ġblow": 8623,
      "Ġbusy": 8624,
      "ĠAsh": 8625,
      "ĠBlumen": 8626,
      "Ġwarrant": 8627,
      "ĠLawrence": 8628,
      "Ġsurprise": 8629,
      "Ġbehavior": 8630,
      "One": 8631,
      "bing": 8632,
      "Ġfn": 8633,
      "Ġlift": 8634,
      "Ġnav": 8635,
      "Ġease": 8636,
      "Ġviv": 8637,
      "Ġclothes": 8638,
      "ieren": 8639,
      "ĠLeague": 8640,
      "ĠShow": 8641,
      "Ġ1912": 8642,
      "Ġavons": 8643,
      "ĠEstate": 8644,
      "ĠSupreme": 8645,
      "ĠTotal": 8646,
      "AIR": 8647,
      "fin": 8648,
      "ji": 8649,
      "pfe": 8650,
      "zs": 8651,
      "Ġahead": 8652,
      "Ġbatt": 8653,
      "ĠSaum": 8654,
      "Ġrese": 8655,
      "ĠBal": 8656,
      "ĠJun": 8657,
      "Ġweiter": 8658,
      "law": 8659,
      "Ġleicht": 8660,
      "ĠKan": 8661,
      "Ġdistant": 8662,
      "Ġsubstit": 8663,
      "ĠPresby": 8664,
      "Ġshortly": 8665,
      "Ġdemocratic": 8666,
      "hmen": 8667,
      "Ġast": 8668,
      "ĠcO": 8669,
      "Ġdated": 8670,
      "Ġlumber": 8671,
      "enton": 8672,
      "ĠCUR": 8673,
      "leton": 8674,
      "ĠHad": 8675,
      "Ġhel": 8676,
      "ĠLiz": 8677,
      "Ġroof": 8678,
      "anges": 8679,
      "Ġinstant": 8680,
      "ĠAssembly": 8681,
      "ĠHerrn": 8682,
      "stee": 8683,
      "Ġcontinues": 8684,
      "Ġsignal": 8685,
      "Ġcopies": 8686,
      "Ġconcerned": 8687,
      "Ġphysicians": 8688,
      "ĠFifth": 8689,
      "Ġtables": 8690,
      "Ġsoul": 8691,
      "itten": 8692,
      "ĠSI": 8693,
      "ĠOil": 8694,
      "Ġrevenue": 8695,
      "ĠBart": 8696,
      "uting": 8697,
      "ĠLob": 8698,
      "tebr": 8699,
      "ĠJail": 8700,
      "emeter": 8701,
      "Ġrepair": 8702,
      "Ġrecover": 8703,
      "Ġextract": 8704,
      "Ġreturns": 8705,
      "Ġstudents": 8706,
      "Ġhoriz": 8707,
      "ĠWilmington": 8708,
      "ĠSCI": 8709,
      "holders": 8710,
      "Ġmessage": 8711,
      "Ġrepublican": 8712,
      "Ġunusual": 8713,
      "ĠprÃ©cÃ©d": 8714,
      "coup": 8715,
      "ygen": 8716,
      "Ġwire": 8717,
      "Ġlime": 8718,
      "ĠSW": 8719,
      "Ġemer": 8720,
      "ĠDoll": 8721,
      "ĠWright": 8722,
      "ĠGas": 8723,
      "ĠGardens": 8724,
      "ĠLang": 8725,
      "ĠEar": 8726,
      "ĠJes": 8727,
      "Ã¤uf": 8728,
      "beiten": 8729,
      "Ġreputation": 8730,
      "Ġpayable": 8731,
      "Ġ1909": 8732,
      "Ġescaped": 8733,
      "Ġconsequence": 8734,
      "Ġseventy": 8735,
      "56": 8736,
      "Ġtine": 8737,
      "esc": 8738,
      "ĠCard": 8739,
      "Ġreb": 8740,
      "ĠNj": 8741,
      "ifi": 8742,
      "rust": 8743,
      "cium": 8744,
      "Ġ61": 8745,
      "Ġcompact": 8746,
      "Ġpresents": 8747,
      "ĠBec": 8748,
      "ĠButler": 8749,
      "Ġreturning": 8750,
      "ĠQuart": 8751,
      "Ġculture": 8752,
      "Ġdrive": 8753,
      "Ġenterpr": 8754,
      "Ġelegant": 8755,
      "Dr": 8756,
      "Ġcul": 8757,
      "itter": 8758,
      "Ġded": 8759,
      "Ġling": 8760,
      "ĠSN": 8761,
      "Ġsund": 8762,
      "uded": 8763,
      "Ġplates": 8764,
      "ueblo": 8765,
      "ĠSeattle": 8766,
      "Ġpocket": 8767,
      "Ġintern": 8768,
      "ienen": 8769,
      "azione": 8770,
      "ĠChem": 8771,
      "ĠAccording": 8772,
      "ĠGREEN": 8773,
      "ĠWisconsin": 8774,
      "Ġsoll": 8775,
      "Ġwishes": 8776,
      "ĠTn": 8777,
      "Ġreasons": 8778,
      "ĠWITH": 8779,
      "ensive": 8780,
      "liest": 8781,
      "ENCE": 8782,
      "Ġconsumption": 8783,
      "ĠpiÃ¹": 8784,
      "Ġwidow": 8785,
      "Ġarrangements": 8786,
      "Ġstrictly": 8787,
      "ADELPHIA": 8788,
      "Ġfet": 8789,
      "itol": 8790,
      "ieben": 8791,
      "ulu": 8792,
      "Ġsuits": 8793,
      "ources": 8794,
      "Ġsac": 8795,
      "fert": 8796,
      "ONE": 8797,
      "Ġapple": 8798,
      "Ġsurvey": 8799,
      "ĠPlate": 8800,
      "Ġproperties": 8801,
      "ĠEngine": 8802,
      "Ġmachinery": 8803,
      "Ġwohl": 8804,
      "ĠTreasury": 8805,
      "Oc": 8806,
      "Sh": 8807,
      "jj": 8808,
      "tte": 8809,
      "Ġbv": 8810,
      "Ġunivers": 8811,
      "aved": 8812,
      "loc": 8813,
      "acle": 8814,
      "lio": 8815,
      "Ġlongueur": 8816,
      "Ġvariation": 8817,
      "uthors": 8818,
      "Ġproducing": 8819,
      "Ġpatron": 8820,
      "Ġmedic": 8821,
      "Ġantic": 8822,
      "Ġdetails": 8823,
      "Ġrecommended": 8824,
      "ĠHawaii": 8825,
      "ĠPsittacus": 8826,
      "ĠInsect": 8827,
      "Rs": 8828,
      "UTH": 8829,
      "eo": 8830,
      "pass": 8831,
      "td": 8832,
      "zo": 8833,
      "inth": 8834,
      "Ġgn": 8835,
      "omed": 8836,
      "Ġstalk": 8837,
      "Ġmanif": 8838,
      "ĠYellow": 8839,
      "ĠĠĠĠĠĠĠĠĠĠĠ": 8840,
      "Ġsyn": 8841,
      "Ġconfident": 8842,
      "Ġavoid": 8843,
      "ĠTerms": 8844,
      "ĠREP": 8845,
      "Ġrevol": 8846,
      "ĠMontg": 8847,
      "Ġquantities": 8848,
      "ĠJapanese": 8849,
      "ĠFrederick": 8850,
      "06": 8851,
      "AI": 8852,
      "YS": 8853,
      "ware": 8854,
      "onio": 8855,
      "Ġbou": 8856,
      "icien": 8857,
      "ĠAve": 8858,
      "ĠJas": 8859,
      "Ġneat": 8860,
      "eller": 8861,
      "Ġgratis": 8862,
      "Ġthanks": 8863,
      "Ġloose": 8864,
      "Ġoffers": 8865,
      "yspe": 8866,
      "Ġreceipt": 8867,
      "Ġ1855": 8868,
      "Ġrepresentatives": 8869,
      "Ġresulted": 8870,
      "Ġwaiting": 8871,
      "Ġheretofore": 8872,
      "edies": 8873,
      "ĠIR": 8874,
      "urers": 8875,
      "ĠLO": 8876,
      "Ġchur": 8877,
      "aging": 8878,
      "Ġgravel": 8879,
      "ĠBridge": 8880,
      "Ġfactory": 8881,
      "Ġpropos": 8882,
      "ĠMcG": 8883,
      "borsten": 8884,
      "Ġexcit": 8885,
      "Ġborder": 8886,
      "Ġliberty": 8887,
      "ĠMitchell": 8888,
      "Ġexactly": 8889,
      "Ġchemical": 8890,
      "ĠBaptist": 8891,
      "74": 8892,
      "Ns": 8893,
      "Ġtan": 8894,
      "Ġwing": 8895,
      "Ġwal": 8896,
      "ĠSIT": 8897,
      "Ġnations": 8898,
      "rogen": 8899,
      "Ġbek": 8900,
      "ĠHob": 8901,
      "iffe": 8902,
      "Ġings": 8903,
      "Ġbarg": 8904,
      "Ġdrawing": 8905,
      "Ġsolic": 8906,
      "Ġfurniture": 8907,
      "Ġcovering": 8908,
      "ĠDbftbau": 8909,
      "ĠRobinson": 8910,
      "ĠLaboratory": 8911,
      "ket": 8912,
      "Ġends": 8913,
      "itan": 8914,
      "ĠBos": 8915,
      "chten": 8916,
      "ĠHop": 8917,
      "asts": 8918,
      "ĠIND": 8919,
      "Ġattending": 8920,
      "innen": 8921,
      "ĠfrÃ¼": 8922,
      "ĠPeru": 8923,
      "Ġprior": 8924,
      "Ġflav": 8925,
      "Ġreaching": 8926,
      "Ġrarely": 8927,
      "Ġcustomers": 8928,
      "KER": 8929,
      "Ġig": 8930,
      "oring": 8931,
      "Ġlions": 8932,
      "ĠCross": 8933,
      "Ġreform": 8934,
      "Ġleurs": 8935,
      "agus": 8936,
      "ĠYet": 8937,
      "Ġclay": 8938,
      "Ġturning": 8939,
      "Ġadjo": 8940,
      "ĠPreis": 8941,
      "Ġmaintain": 8942,
      "Ġtravelling": 8943,
      "orticultural": 8944,
      "eS": 8945,
      "lers": 8946,
      "ĠOie": 8947,
      "ĠCra": 8948,
      "Ġstro": 8949,
      "ĠRap": 8950,
      "ĠJourn": 8951,
      "..,": 8952,
      "Ġabge": 8953,
      "ewise": 8954,
      "ĠConne": 8955,
      "ĠSTATE": 8956,
      "Ġreaders": 8957,
      "Ġmodel": 8958,
      "Ġamendment": 8959,
      "ĠDetroit": 8960,
      "ĠImprove": 8961,
      "egen": 8962,
      "Ġsid": 8963,
      "ĠSau": 8964,
      "ĠMach": 8965,
      "ĠPi": 8966,
      "irie": 8967,
      "Ġono": 8968,
      "esty": 8969,
      "Ġior": 8970,
      "ĠInst": 8971,
      "Ġdoors": 8972,
      "oga": 8973,
      "Ġload": 8974,
      "ĠPhill": 8975,
      "ĠdiffÃ©": 8976,
      "Ġselbst": 8977,
      "Ġchiefly": 8978,
      "Ġdeposit": 8979,
      "Ġsafety": 8980,
      "Ġeminent": 8981,
      "Ġsympt": 8982,
      "aren": 8983,
      "ĠCher": 8984,
      "igent": 8985,
      "ĠWI": 8986,
      "ĠGet": 8987,
      "Ġrig": 8988,
      "Ã¼ge": 8989,
      "Ġenfor": 8990,
      "Ġgrat": 8991,
      "duc": 8992,
      "ials": 8993,
      "ĠCoal": 8994,
      "Ġactiv": 8995,
      "Ġ1898": 8996,
      "Ġconsiderably": 8997,
      "Ġ1991": 8998,
      "Ġcelle": 8999,
      "Ġpurchaser": 9000,
      "ĠColumbus": 9001,
      "Ex": 9002,
      "mark": 9003,
      "itung": 9004,
      "ĠRest": 9005,
      "ĠRES": 9006,
      "Ġrender": 9007,
      "Ġnose": 9008,
      "inton": 9009,
      "Ġcloud": 9010,
      "ILLE": 9011,
      "Ġtrem": 9012,
      "Ġbelief": 9013,
      "Ġparticip": 9014,
      "imming": 9015,
      "Ġbaby": 9016,
      "Ġbuds": 9017,
      "Ġsympathy": 9018,
      "Ġadapted": 9019,
      "set": 9020,
      "Ġbeer": 9021,
      "ĠMes": 9022,
      "ĠPap": 9023,
      "ĠGem": 9024,
      "qua": 9025,
      "aven": 9026,
      "Ġsheet": 9027,
      "ennen": 9028,
      "There": 9029,
      "aient": 9030,
      "ĠExchange": 9031,
      "Ġopposition": 9032,
      "legt": 9033,
      "Ġremarked": 9034,
      "Ġbringing": 9035,
      "Ġjudgment": 9036,
      "Ġcaptured": 9037,
      "riculture": 9038,
      "Ġattractive": 9039,
      "Ġexercise": 9040,
      "UB": 9041,
      "rig": 9042,
      "Ġtory": 9043,
      "Ġmn": 9044,
      "Ġlan": 9045,
      "Ġreward": 9046,
      "chre": 9047,
      "Ġsta": 9048,
      "ĠFull": 9049,
      "ĠRio": 9050,
      "ĠJane": 9051,
      "Ġthereon": 9052,
      "inks": 9053,
      "Ġdirections": 9054,
      "Ġproviding": 9055,
      "Ġ1906": 9056,
      "Ġdoubtless": 9057,
      "cript": 9058,
      "halb": 9059,
      "OSE": 9060,
      "Ġsettle": 9061,
      "Ġremoval": 9062,
      "Ã©rieur": 9063,
      "Ġsupreme": 9064,
      "Ġexperienced": 9065,
      "Gen": 9066,
      "Un": 9067,
      "Us": 9068,
      "wau": 9069,
      "Ġbla": 9070,
      "Ġwi": 9071,
      "Ġwat": 9072,
      "Ġpier": 9073,
      "oubted": 9074,
      "ĠStern": 9075,
      "aland": 9076,
      "immer": 9077,
      "olid": 9078,
      "ĠLeiden": 9079,
      "Ġscattered": 9080,
      "Ġtelegraph": 9081,
      "rator": 9082,
      "Ġinstitution": 9083,
      "Ġoperations": 9084,
      "ĠAugusta": 9085,
      "Ġbehalf": 9086,
      "ĠPolice": 9087,
      "ĠOthers": 9088,
      "Ġliquor": 9089,
      "fung": 9090,
      "Ġtong": 9091,
      "Ġacted": 9092,
      "Ġstern": 9093,
      "Ġcatch": 9094,
      "Ġlange": 9095,
      "Ġshares": 9096,
      "ĠInvest": 9097,
      "ĠVog": 9098,
      "ĠChalk": 9099,
      "Ġaccum": 9100,
      "Ġregions": 9101,
      "ificent": 9102,
      "OOL": 9103,
      "aneous": 9104,
      "ACH": 9105,
      "Ġpunct": 9106,
      "etzt": 9107,
      "ĠMethodist": 9108,
      "ĠElectric": 9109,
      "Ou": 9110,
      "bcr": 9111,
      "Ġtone": 9112,
      "Ġbone": 9113,
      "Ġdre": 9114,
      "ĠOer": 9115,
      "lected": 9116,
      "ĠGib": 9117,
      "rain": 9118,
      "Ġkilling": 9119,
      "Ġjob": 9120,
      "Ġplenty": 9121,
      "Ġundert": 9122,
      "ĠYes": 9123,
      "arium": 9124,
      "ĠConn": 9125,
      "Ġrequires": 9126,
      "ĠSmall": 9127,
      "ipping": 9128,
      "ĠPeople": 9129,
      "Ġdeliver": 9130,
      "ĠAtlanta": 9131,
      "iiiiiiii": 9132,
      "Ġwenig": 9133,
      "Ġenormous": 9134,
      "OK": 9135,
      "Ġpy": 9136,
      "ĠmuÃŁ": 9137,
      "ĠSÃ¤": 9138,
      "ĠOx": 9139,
      "ĠBenn": 9140,
      "Ġsew": 9141,
      "quis": 9142,
      "Ġages": 9143,
      "bey": 9144,
      "Ġflour": 9145,
      "ĠAdminist": 9146,
      "Ġoffices": 9147,
      "Ġpromise": 9148,
      "ĠGrund": 9149,
      "Ġproceedings": 9150,
      "ĠDrug": 9151,
      "ĠCharleston": 9152,
      "Ġreliable": 9153,
      "ĠProbate": 9154,
      "SH": 9155,
      "^.": 9156,
      "fam": 9157,
      "uche": 9158,
      "Ġwages": 9159,
      "Ġfatal": 9160,
      "ĠLima": 9161,
      "ĠEgypt": 9162,
      "umer": 9163,
      "Ġjournal": 9164,
      "Ġimmediately": 9165,
      "Ġboats": 9166,
      "Ġattrib": 9167,
      "Ġmemb": 9168,
      "Ġbegun": 9169,
      "IGN": 9170,
      "ĠMedicine": 9171,
      "Ġcombination": 9172,
      "Ġpreceding": 9173,
      "ĠFederal": 9174,
      "ĠPHILADELPHIA": 9175,
      ",;": 9176,
      "73": 9177,
      "inae": 9178,
      "eno": 9179,
      "Ġoats": 9180,
      "Ġbap": 9181,
      "Ġreve": 9182,
      "ĠPay": 9183,
      "ĠEt": 9184,
      "pecial": 9185,
      "lde": 9186,
      "Ġpref": 9187,
      "ateral": 9188,
      "ATT": 9189,
      "Ġtrace": 9190,
      "cope": 9191,
      "Ġende": 9192,
      "Ġsumm": 9193,
      "ylind": 9194,
      "immt": 9195,
      "Ġvoters": 9196,
      "ĠSweet": 9197,
      "vard": 9198,
      "ĠTri": 9199,
      "ĠCell": 9200,
      "ĠAuthor": 9201,
      "Ġwholly": 9202,
      "geon": 9203,
      "aha": 9204,
      "ĠAlf": 9205,
      "Ġfright": 9206,
      "Ġconstitu": 9207,
      "ĠGlass": 9208,
      "Ġperformance": 9209,
      "Ġcomparatively": 9210,
      "CC": 9211,
      "lI": 9212,
      "infe": 9213,
      "ĠSER": 9214,
      "Ġnour": 9215,
      "ĠOm": 9216,
      "ĠPun": 9217,
      "ĠHud": 9218,
      "Ġvul": 9219,
      "Ġwithd": 9220,
      "Ġity": 9221,
      "ĠArmy": 9222,
      "Ġils": 9223,
      "Ġduly": 9224,
      "Ġ1901": 9225,
      "Ġ1990": 9226,
      "Ġ1868": 9227,
      "cises": 9228,
      "ĠMinister": 9229,
      "Ġcorrespondent": 9230,
      "Ġindustry": 9231,
      "Ġemployees": 9232,
      "sf": 9233,
      "wach": 9234,
      "Ġoben": 9235,
      "Ġfool": 9236,
      "anus": 9237,
      "Ġhc": 9238,
      "ĠTim": 9239,
      "Ġrivers": 9240,
      "Ġorch": 9241,
      "oden": 9242,
      "rys": 9243,
      "ĠCOW": 9244,
      "Ġvisible": 9245,
      "ĠVermont": 9246,
      "Ġpetit": 9247,
      "Ġpowerful": 9248,
      "Ġpolitics": 9249,
      "ĠEvans": 9250,
      "ĠCampbell": 9251,
      "What": 9252,
      "100": 9253,
      "79": 9254,
      "BUR": 9255,
      "gus": 9256,
      "ght": 9257,
      "sS": 9258,
      "Ġtous": 9259,
      "Ġcows": 9260,
      "Ġmenn": 9261,
      "llo": 9262,
      "ĠAuch": 9263,
      "ĠHospital": 9264,
      "Ġstations": 9265,
      "Ġtea": 9266,
      "Ġprovince": 9267,
      "Ġdirectors": 9268,
      "ATIONS": 9269,
      "ĠTrustees": 9270,
      "bildung": 9271,
      "Ġwitnesses": 9272,
      "ĠRecord": 9273,
      "Ġascertain": 9274,
      "?'": 9275,
      "ĠPf": 9276,
      "olo": 9277,
      "ĠLÃ¤nge": 9278,
      "ĠRou": 9279,
      "ĠInn": 9280,
      "erves": 9281,
      "Ġterrible": 9282,
      "Ġphase": 9283,
      "Ġobservation": 9284,
      "Ġembra": 9285,
      "Ġtreasury": 9286,
      "cont": 9287,
      "Ġsample": 9288,
      "Ġsulf": 9289,
      "Ġcum": 9290,
      "Ġfence": 9291,
      "Ġgained": 9292,
      "ĠPra": 9293,
      "utz": 9294,
      "rive": 9295,
      "Ġcompris": 9296,
      "pha": 9297,
      "Ġprime": 9298,
      "Ġrepla": 9299,
      "ĠJoe": 9300,
      "Ġdepot": 9301,
      "ĠNever": 9302,
      "iums": 9303,
      "Ġhoch": 9304,
      "Ġlights": 9305,
      "Ġincident": 9306,
      "ommt": 9307,
      "Ġassistant": 9308,
      "Ġelles": 9309,
      "Ġadjourned": 9310,
      "emetery": 9311,
      "Ġmills": 9312,
      "Ġguns": 9313,
      "ushing": 9314,
      "osi": 9315,
      "Ġmeant": 9316,
      "oks": 9317,
      "Ġlongs": 9318,
      "Ġdemands": 9319,
      "ĠNeu": 9320,
      "ETS": 9321,
      "Ġprovision": 9322,
      "ĠQuar": 9323,
      "going": 9324,
      "amental": 9325,
      "ĠMemphis": 9326,
      "Ġmixture": 9327,
      "ĠFamily": 9328,
      "Ġfarther": 9329,
      "bÃ¤ume": 9330,
      "gments": 9331,
      "Ġah": 9332,
      "Ġsas": 9333,
      "Ġcts": 9334,
      "ĠOP": 9335,
      "ĠAff": 9336,
      "eton": 9337,
      "ĠLog": 9338,
      "Ġrust": 9339,
      "antry": 9340,
      "Ġ,,,": 9341,
      "uben": 9342,
      "Ġpremi": 9343,
      "Ġloan": 9344,
      "Ġending": 9345,
      "Ġleader": 9346,
      "Ġrespective": 9347,
      "Ġflag": 9348,
      "Ġwinds": 9349,
      "Ġhoped": 9350,
      "fall": 9351,
      "Ġtum": 9352,
      "Ġsending": 9353,
      "ĠTree": 9354,
      "Ġstamp": 9355,
      "ĠRaum": 9356,
      "Ġhav": 9357,
      "Ġresident": 9358,
      "Ġgenuine": 9359,
      "Ġtraining": 9360,
      "Ġbladen": 9361,
      "Ġinstances": 9362,
      "Ġbefon": 9363,
      "Ġbreaking": 9364,
      "Ġcauda": 9365,
      "Ġmaintained": 9366,
      "Ad": 9367,
      "Ġmitt": 9368,
      "urus": 9369,
      "oti": 9370,
      "utter": 9371,
      "Ġvital": 9372,
      "ichten": 9373,
      "arest": 9374,
      "ĠAnlage": 9375,
      "ario": 9376,
      "Ġscen": 9377,
      "ennes": 9378,
      "Ġfois": 9379,
      "ĠPlan": 9380,
      "Ġmental": 9381,
      "Ġrestrict": 9382,
      "Ġbasal": 9383,
      "Ġlimits": 9384,
      "Ġcircular": 9385,
      "Ġdisposed": 9386,
      "Ġopera": 9387,
      "Ġreview": 9388,
      "Ġlegislation": 9389,
      "iir": 9390,
      "Ġtant": 9391,
      "eros": 9392,
      "Ġcav": 9393,
      "Ġofthe": 9394,
      "Ġlust": 9395,
      "ĠTa": 9396,
      "ĠClo": 9397,
      "lein": 9398,
      "ĠNY": 9399,
      "ĠGard": 9400,
      "Ġwhilst": 9401,
      "umin": 9402,
      "ĠExper": 9403,
      "Ġdiesen": 9404,
      "Ġpublish": 9405,
      "Ġthickness": 9406,
      "ĠSherman": 9407,
      "ĠAlexand": 9408,
      "Ġpursu": 9409,
      "Ġsowie": 9410,
      "ĠBaumschulen": 9411,
      "ĠNashville": 9412,
      "Ġdischarged": 9413,
      "ĠâĤ¬": 9414,
      "ĠMontgomery": 9415,
      "AGE": 9416,
      "dale": 9417,
      "green": 9418,
      "Ġmars": 9419,
      "Ġee": 9420,
      "olph": 9421,
      "ĠJim": 9422,
      "endence": 9423,
      "Ġcopper": 9424,
      "Ġpeo": 9425,
      "Ġdefined": 9426,
      "Ġincludes": 9427,
      "ĠFrankfurt": 9428,
      "ynam": 9429,
      "Ġangle": 9430,
      "Ġerect": 9431,
      "iciently": 9432,
      "ĠMountain": 9433,
      "ĠPrincip": 9434,
      "And": 9435,
      "SO": 9436,
      "hren": 9437,
      "Ġow": 9438,
      "Ġbones": 9439,
      "asse": 9440,
      "ĠTake": 9441,
      "ĠCM": 9442,
      "ĠHOUSE": 9443,
      "Ġiv": 9444,
      "ffic": 9445,
      "ipes": 9446,
      "Ġafterwards": 9447,
      "ĠCooper": 9448,
      "ITT": 9449,
      "Ġmarks": 9450,
      "Ġletz": 9451,
      "Ġseeing": 9452,
      "Ġ1896": 9453,
      "Ġcirculation": 9454,
      "AGO": 9455,
      "ĠCommercial": 9456,
      "Ġcoerule": 9457,
      "bage": 9458,
      "iie": 9459,
      "lit": 9460,
      "mouth": 9461,
      "Ġdiver": 9462,
      "anj": 9463,
      "Ġnr": 9464,
      "Ġbeit": 9465,
      "urf": 9466,
      "Ġrela": 9467,
      "ĠFla": 9468,
      "racy": 9469,
      "unning": 9470,
      "apon": 9471,
      "Ġ.-": 9472,
      "eping": 9473,
      "Ġenable": 9474,
      "Ġ74": 9475,
      "Ġ'.": 9476,
      "Ġcommen": 9477,
      "pring": 9478,
      "enna": 9479,
      "Ġcolum": 9480,
      "Ġfreed": 9481,
      "ANTS": 9482,
      "Ġattempted": 9483,
      "Ġdropped": 9484,
      "Ġcommerce": 9485,
      "Ġnaturally": 9486,
      "Ġbeaucoup": 9487,
      "UBLIC": 9488,
      "Ġconspicuous": 9489,
      "Ġadjoining": 9490,
      "isclosures": 9491,
      "Ġlac": 9492,
      "ĠHou": 9493,
      "ĠHans": 9494,
      "Ġforget": 9495,
      "Ġvoll": 9496,
      "rien": 9497,
      "Ġunters": 9498,
      "oret": 9499,
      "ryst": 9500,
      "ERAL": 9501,
      "ierung": 9502,
      "ATED": 9503,
      "obft": 9504,
      "ursion": 9505,
      "ĠShort": 9506,
      "Ġnights": 9507,
      "ĠPoly": 9508,
      ":-": 9509,
      "cular": 9510,
      "oS": 9511,
      "rine": 9512,
      "orce": 9513,
      "Ġpf": 9514,
[...]
